<unk>	0
<s>	0
</s>	0
▁করা	-3.72511
)	-3.76521
র	-3.79079
।	-3.90128
▁	-3.90421
▁(_	-3.97466
s	-4.03113
ের	-4.0546
-	-4.07362
▁করুন	-4.24992
:	-4.34362
▁%	-4.37635
▁হবে	-4.38423
,	-4.94864
▁জন্য	-4.98938
▁একটি	-5.0866
▁করতে	-5.09532
$	-5.15342
▁না	-5.18809
▁বার্তা	-5.19583
▁এই	-5.26759
▁(	-5.2901
▁প্রদর্শন	-5.32261
▁ফাইল	-5.35727
▁করে	-5.38638
/	-5.41336
1	-5.44549
2	-5.45086
'	-5.52486
"	-5.58213
তে	-5.58676
▁হচ্ছে	-5.59276
▁ফোল্ডার	-5.601
▁"	-5.63962
▁ব্যবহার	-5.6538
▁কি	-5.65581
▁নতুন	-5.6619
ে	-5.66802
▁থেকে	-5.70628
টি	-5.71602
▁নয়	-5.72196
▁নাম	-5.73138
▁হয়েছে	-5.7335
▁করার	-5.75709
▁ব্যর্থ	-5.77218
▁আপনি	-5.85971
▁যায়নি	-5.86176
▁সময়	-5.86808
▁তথ্য	-5.91694
▁আপনার	-5.94116
▁মুছে	-6.03209
কে	-6.04395
বা	-6.05371
.	-6.05987
▁তালিকা	-6.086
▁দ্বারা	-6.09642
▁মধ্যে	-6.09815
?	-6.12467
কোনো	-6.13343
▁সম্ভব	-6.14276
▁নির্বাচন	-6.14293
▁সংরক্ষণ	-6.15874
▁তৈরি	-6.16265
এর	-6.1646
▁সাথে	-6.16577
_	-6.17126
▁ও	-6.18375
S	-6.20192
▁এবং	-6.2076
▁অথ	-6.20838
▁বর্তমান	-6.21079
▁সং	-6.21966
▁পরিবর্তন	-6.24182
0	-6.24229
▁মান	-6.24458
▁ত্রুটি	-6.24879
):	-6.25517
▁যোগ	-6.26079
▁অনুগ্রহ	-6.2638
...	-6.27795
d	-6.28807
▁পরিচিতি	-6.29886
▁করো	-6.30143
▁ঠিকানা	-6.3096
▁নির্বাচিত	-6.31405
▁যে	-6.31913
▁উইন্ডো	-6.32337
▁Evolution	-6.35586
▁পাসওয়ার্ড	-6.36033
▁চিহ্নিত	-6.36921
▁সক্রিয়	-6.3697
▁অনুসন্ধান	-6.37454
▁মেইল	-6.37501
ভাবে	-6.37779
ক্রান্ত	-6.37964
▁নেই	-6.38296
▁হয়নি	-6.38985
▁হয়	-6.39018
▁কাজ	-6.39572
▁এর	-6.39769
▁নির্ধারণ	-6.426
▁প্রেরণ	-6.4319
▁ছবি	-6.43635
▁"%	-6.44494
য়	-6.44579
এ	-6.45654
▁তা	-6.465
▁কী	-6.47359
ন	-6.52361
▁সার্ভার	-6.52683
▁হলে	-6.53626
5	-6.53743
A	-6.55517
8	-6.56167
",	-6.57154
▁অ্যাকাউন্ট	-6.57459
▁`%	-6.60795
▁চান	-6.61241
▁উপস্থিত	-6.61565
▁অনুলিপি	-6.61674
▁পরীক্ষা	-6.61895
া	-6.62163
▁ভিডিও	-6.6301
িত	-6.63385
▁পাওয়া	-6.63847
▁ব্যবহৃত	-6.64774
3	-6.65147
▁পুনরায়	-6.65179
▁আরম্ভ	-6.65905
▁'%	-6.67983
▁এটি	-6.68577
▁বার্ন	-6.6956
▁লোড	-6.70274
▁ফেলা	-6.72444
▁এ	-6.72853
R	-6.73133
D	-6.7319
▁ফাঁকা	-6.76011
▁সংযোগ	-6.76743
▁ক্যালেন্ডার	-6.79195
ক	-6.79374
C	-6.79937
▁যাবে	-6.80459
▁যাচ্ছে	-6.81947
▁অপশন	-6.82299
F	-6.83052
▁বন্ধ	-6.83256
▁ডিফল্ট	-6.83341
▁ফোল্ডারে	-6.83531
▁ই	-6.83902
শুধুমাত্র	-6.8433
▁কোন	-6.85767
▁অবস্থান	-6.87967
M	-6.88627
▁প্রাপ্ত	-6.91208
ই	-6.91498
e	-6.9187
▁ডিস্ক	-6.92106
▁সার্টিফিকেট	-6.92664
▁উল্লেখ	-6.92683
▁বৈশিষ্ট্য	-6.94013
মেইল	-6.94316
ার	-6.94482
P	-6.95415
▁সার্ভারে	-6.9559
▁বাতিল	-6.95903
ইন	-6.96914
▁সমস্যা	-6.98378
▁শব্দ	-7.01475
▁দিন	-7.0275
▁আবশ্যক	-7.04021
▁লেখা	-7.04672
▁কল	-7.04737
▁বিদ্যমান	-7.04739
রূপে	-7.0551
▁আকার	-7.0602
▁CD	-7.06831
▁ডিস্কে	-7.07094
▁-	-7.07127
▁অডিও	-7.08151
দের	-7.08479
▁কিনা	-7.0897
U	-7.09072
▁ক্ষেত্রে	-7.10159
▁বা	-7.11066
ও	-7.11091
E	-7.11496
▁ফেলুন	-7.11608
T	-7.11727
▁খেলা	-7.11731
▁বুকমার্ক	-7.13628
▁ব্যবস্থা	-7.14011
অনুযায়ী	-7.15646
▁খোলা	-7.16019
▁সব	-7.16442
▁হিসেবে	-7.16708
▁ধরন	-7.16716
▁যদি	-7.16786
▁সংখ্যা	-7.17728
▁পৃষ্ঠা	-7.1778
▁কনফিগারেশন	-7.18187
▁কমান্ড	-7.18426
▁গ্রহণ	-7.19588
N	-7.19692
a	-7.19698
▁ব্যবহারকারী	-7.20451
ো	-7.21166
▁বস্তু	-7.21502
▁সঠিক	-7.23297
▁পড়া	-7.23812
▁DVD	-7.24188
▁লিখুন	-7.24496
▁আমেরিকা	-7.25325
▁ছবির	-7.27118
B	-7.27599
▁সমর্থিত	-7.2864
▁কিছু	-7.28887
▁ডিরেক্টরি	-7.2921
▁ফন্ট	-7.2927
▁মুদ্রণ	-7.29439
4	-7.29444
▁ব্যবহারকারীর	-7.29537
;	-7.29725
ত	-7.30175
▁স্বয়ংক্রিয়	-7.30296
▁সরিয়ে	-7.30345
▁পরবর্তী	-7.30555
O	-7.30715
▁প্লাগ	-7.30858
▁রয়েছে	-7.30898
▁অনুমোদন	-7.3124
I	-7.3179
▁সংযুক্ত	-7.31797
▁“%	-7.32054
▁স্বাক্ষর	-7.32127
▁ক্লিক	-7.32128
▁নির্মাণ	-7.33426
o	-7.33479
▁অবস্থা	-7.33558
▁কর্ম	-7.34475
x	-7.34699
▁ফাইলটি	-7.34833
▁(%	-7.3531
▁সভা	-7.35397
▁সকল	-7.35686
%	-7.35746
▁বিন্যাস	-7.36066
n	-7.36158
9	-7.36496
▁মেমো	-7.36504
▁ডাটা	-7.36593
▁লগ	-7.36702
লাইন	-7.37101
▁রং	-7.3746
▁১	-7.37676
▁সংস্করণ	-7.38299
▁চিত্র	-7.38417
i	-7.38653
▁আর্কাইভ	-7.38719
বে	-7.38909
▁নিম্নলিখিত	-7.39309
▁করবে	-7.39343
▁নিন	-7.39519
▁ইম্পোর্ট	-7.3961
▁অজানা	-7.40292
▁নিষ্ক্রিয়	-7.40419
▁অ	-7.40994
6	-7.42131
▁ব্রাসেরো	-7.42157
▁সমস্ত	-7.42158
▁অকার্যকর	-7.42184
▁খুলুন	-7.43135
▁ওয়েব	-7.44052
▁নিশ্চিত	-7.44178
▁অন্য	-7.44326
ট	-7.44431
▁টেক্সট	-7.44839
▁ক্ষেত্র	-7.44845
▁হ	-7.44991
”	-7.4534
'-	-7.45681
▁অফ	-7.46118
L	-7.46129
▁উদ্দেশ্যে	-7.46133
t	-7.46252
▁হিসাবে	-7.47122
▁স্থানীয়	-7.47141
▁মোডে	-7.47535
ম	-7.4774
▁যায়	-7.47852
▁তারিখ	-7.48596
▁আছে	-7.48961
unit	-7.49139
▁পর্দা	-7.49162
▁স্থান	-7.49706
িয়ে	-7.50379
▁২	-7.5095
▁প্রাপক	-7.50976
▁প্রকল্প	-7.51116
▁ত	-7.51262
▁'	-7.51957
▁প্রদর্শিত	-7.52343
▁দেখা	-7.52705
p	-7.53097
▁পূর্ববর্তী	-7.53395
কৃত	-7.5415
▁থাকলে	-7.54495
আপ	-7.54751
)...	-7.55407
▁অনুমতি	-7.55635
▁নির্ধারিত	-7.55689
গুলো	-7.55989
স	-7.56635
ি	-7.56965
▁নথি	-7.57924
▁প্রয়োগ	-7.57957
▁সম্পন্ন	-7.58017
▁যা	-7.58385
▁ডিভাইস	-7.58743
▁অনুরোধ	-7.58753
!	-7.58806
▁শীর্ষচরণ	-7.60213
▁এক	-7.61016
▁বড়	-7.61415
▁সাধারণ	-7.61979
▁অ্যাপ্লিকেশন	-7.62198
▁অপসারণ	-7.62352
▁ইনস্টল	-7.62605
▁অবস্থায়	-7.62638
f	-7.63664
▁সম্পাদন	-7.64387
▁বৈশিষ্ট্যাবলী	-7.64841
▁অংশ	-7.65165
ী	-7.65497
গুলি	-7.65667
▁টুলবার	-7.65794
▁পূর্বে	-7.65972
▁মাধ্যমে	-7.66054
▁বিষয়বস্তু	-7.66085
u	-7.66499
c	-7.6688
▁উপর	-7.6694
▁ট্যাব	-7.67076
▁নি	-7.67122
▁ট্র্যাক	-7.67465
িং	-7.67708
▁দিয়ে	-7.68521
▁Exchange	-7.68535
▁ইচ্ছুক	-7.68536
ISO	-7.68554
▁পরিশোধক	-7.68597
]	-7.69132
▁শেষ	-7.69663
▁URI	-7.69895
▁তাস	-7.69965
▁পরিচিতির	-7.70194
▁প্রস্থ	-7.70854
▁অবজেক্ট	-7.71149
▁বিষয়	-7.71761
▁প্রয়োজন	-7.71951
▁ডাউনলোড	-7.72099
▁এখন	-7.72828
▁পুনরুদ্ধার	-7.73519
▁ফেল	-7.74187
▁পরে	-7.74263
H	-7.74302
▁বার্তাটি	-7.74898
▁প্রক্সি	-7.75064
▁সাক্ষাৎকার	-7.75494
▁মোড	-7.75807
r	-7.76117
▁পারে	-7.76213
▁মূল	-7.76397
▁প্রবেশ	-7.76496
▁{	-7.77384
▁[	-7.77628
▁৩	-7.77792
▁চাল	-7.78174
▁বিবরণ	-7.78919
▁স্থাপন	-7.79279
▁স	-7.79778
w	-7.79781
্য	-7.79985
▁এশিয়	-7.8016
▁Id	-7.80713
b	-7.80939
▁সম্পাদক	-7.81104
▁তার	-7.81128
▁মাপ	-7.81166
▁পেন	-7.81265
}	-7.81514
▁ব	-7.81551
▁সম্পূর্ণ	-7.82099
▁প্রক্রিয়া	-7.82678
প	-7.83062
▁প্রোগ্রাম	-7.83332
V	-7.83602
▁প্রাকদর্শন	-7.83668
g	-7.84288
m	-7.84362
▁বর্ষপঞ্জির	-7.84846
▁বাজানো	-7.8491
▁জিনোম	-7.84932
W	-7.84959
ীয়	-7.85273
▁--	-7.85358
▁সম্পাদনা	-7.85468
▁উদ্ধ	-7.86383
▁অস্থায়ী	-7.86396
l	-7.86484
▁পরিচিত	-7.8774
▁পরিচয়	-7.88888
:%	-7.88903
সমূহ	-7.89116
সহ	-7.8917
▁বৈধ	-7.89419
▁মেনু	-7.90961
▁অন্তর্ভুক্ত	-7.91005
▁অনুসারে	-7.91009
▁ফলে	-7.91035
▁সনাক্ত	-7.91043
▁Empathy	-7.91043
▁পাঠানো	-7.91053
▁এখানে	-7.91068
▁হয়ে	-7.9119
▁ব্যাক	-7.91241
▁G	-7.91289
সাবস্ক্রাইব	-7.91302
▁প্রতি	-7.92465
▁ব্যক্তিগত	-7.9268
▁বাগ	-7.9272
▁X	-7.92804
▁সর্বশেষ	-7.94205
িক	-7.94931
▁অপেক্ষা	-7.95009
▁পাথ	-7.95119
▁নিরাপদ	-7.95427
...(_	-7.95495
▁প্র	-7.95696
▁আবর্জনা	-7.95848
▁IMAP	-7.95884
▁ফ্ল্যাগ	-7.95971
ব	-7.97248
▁স্থানান্তর	-7.97511
▁সহযোগে	-7.9752
▁টেবিল	-7.97593
▁উচ্চতা	-7.97675
▁মুক্ত	-7.97726
▁প্রকাশ	-7.98346
লিখিত	-7.98462
▁নামে	-7.985
▁প্রদান	-7.98746
▁উৎস	-7.9911
চেষ্টা	-7.99148
▁প্রথম	-7.99156
▁স্বনির্ধারিত	-7.99293
▁হালনাগাদ	-8.00927
▁হোম	-8.01025
▁রূপে	-8.01305
▁সিস্টেম	-8.01518
▁বার	-8.01961
ল	-8.02207
▁দিয়েছে	-8.02492
▁আড্ডা	-8.02679
▁দূরবর্তী	-8.02682
▁URL	-8.02813
▁করলে	-8.02884
▁ID	-8.02969
▁নেটওয়ার্ক	-8.03246
▁আপনা	-8.03678
▁a	-8.04225
▁খুল	-8.04459
▁প্রস্থান	-8.04526
▁কলাম	-8.04542
▁থিম	-8.0457
▁যাবেনা	-8.04611
▁যান	-8.05077
▁সম্ভবত	-8.05097
(_	-8.05209
▁বই	-8.05488
▁হওয়া	-8.05577
ণ	-8.05588
▁আফ্রিকা	-8.06284
▁অপ্রয়োজনীয়	-8.06287
▁সংগ্রহ	-8.06288
▁সংযোজন	-8.06298
▁পার্স	-8.06301
▁আইটেম	-8.06376
▁ব্যবহারযোগ্য	-8.06549
বার	-8.06689
▁উত্তর	-8.07129
format	-8.07586
▁উল্	-8.07808
▁অফলাইন	-8.07938
▁লাইসেন্স	-8.07979
▁ফাইলে	-8.07988
▁দেওয়া	-8.08142
▁বিস্তারিত	-8.08145
▁দেখুন	-8.08146
▁চালু	-8.08159
▁সম্পর্কে	-8.08343
▁অনুপস্থিত	-8.08482
▁সাহায্যে	-8.08483
▁লিংক	-8.08555
▁ইউরোপ	-8.08818
▁ক	-8.09071
▁ডিস্কটি	-8.09489
▁ভিউ	-8.09904
v	-8.09914
▁খুঁজ	-8.10017
▁"{	-8.10216
▁রাখা	-8.10518
প্রতিস্থাপন	-8.1149
▁পারেন	-8.11883
symbol	-8.11929
▁সংরক্ষিত	-8.12063
না	-8.12403
▁সংযুক্তি	-8.12666
▁সহ	-8.12836
▁ব্রাউজার	-8.13338
New	-8.13891
▁ফটো	-8.13902
▁Ekiga	-8.13904
▁আর	-8.13929
▁আইকন	-8.13942
▁স্থায়ী	-8.14162
▁করেছেন	-8.14301
▁ব্রাউজ	-8.15068
▁তালিকায়	-8.1524
▁হল	-8.15553
▁শুরু	-8.15903
▁এমন	-8.15929
▁POP	-8.16047
▁পাবলি	-8.16065
▁প্রত্যুত্তর	-8.16246
y	-8.16325
▁সমর্থন	-8.16538
▁ঘোষনা	-8.17945
▁কিন্তু	-8.17962
▁পরিবর্তিত	-8.1813
▁বি	-8.19946
▁সহায়ক	-8.20032
▁সহায়তা	-8.20065
▁ছোট	-8.20131
▁চিহ্ন	-8.20175
▁পটভূমি	-8.20178
নের	-8.20461
যোগ্য	-8.20534
▁সম্ভাব	-8.20758
K	-8.21197
▁স্থানে	-8.21408
▁ধরনের	-8.21807
▁রাখুন	-8.2216
▁জানানো	-8.22188
▁প্রেরিত	-8.22279
▁উইন্ডোতে	-8.22306
▁পরিবর্তে	-8.2231
▁(.	-8.22333
নির্দিষ্ট	-8.2239
▁শিরোনাম	-8.22545
G	-8.23199
ির	-8.23274
▁স্তর	-8.23392
▁সম্পর্কিত	-8.24459
▁থাকা	-8.24621
শ	-8.24851
▁আড়াল	-8.24883
▁মাস	-8.26263
▁হার	-8.26334
▁ক্লায়েন্ট	-8.26553
▁অপ্রত্যাশিত	-8.26555
▁একাধিক	-8.26592
▁LDAP	-8.26604
▁লিখনযোগ্য	-8.27147
▁পপ	-8.27211
▁লিঙ্ক	-8.2729
▁স্কীমা	-8.27768
কারী	-8.27865
▁কনফিগার	-8.28333
াধিক	-8.28368
k	-8.28399
Q	-8.2868
Gadu	-8.2881
▁থীম	-8.2882
▁গতি	-8.29006
কি	-8.2916
h	-8.29453
▁এনক্রিপ্ট	-8.29688
▁আর্গুমেন্ট	-8.29878
▁প	-8.30112
িখিত	-8.30174
=	-8.30604
▁MA	-8.3061
▁আ	-8.30827
▁কপি	-8.31193
তা	-8.31261
▁দেখাও	-8.31303
▁উল্ল	-8.31357
▁অঞ্চল	-8.31517
▁সেশন	-8.31751
▁H	-8.32406
▁পছন্দ	-8.32937
▁প্রোটোকল	-8.33164
Y	-8.33501
পোর্ট	-8.33579
▁থ্রেড	-8.33587
▁অন্যান্য	-8.33653
▁বর্ষপঞ্জি	-8.33671
▁থাকে	-8.3392
▁বোতাম	-8.34506
▁আউটপুট	-8.34586
▁লিখ	-8.35005
▁সফল	-8.35961
▁এনক্রিপশন	-8.35969
▁বিরতি	-8.36158
▁শ্রেণীবিভাগ	-8.36343
ন্ত	-8.36847
▁দেয়া	-8.36888
▁হওয়ার	-8.36959
▁রিপোর্ট	-8.37593
▁ছবিটি	-8.37795
▁সারি	-8.3782
▁করান	-8.37897
ইতিহাস	-8.38416
▁ইনপুট	-8.38467
▁যোগাযোগ	-8.38469
▁বর্ণনা	-8.38482
টিকে	-8.38514
▁প্রচেষ্টা	-8.38543
▁পোস্ট	-8.38859
▁আন	-8.39282
"-	-8.39624
▁ব্লক	-8.40166
▁নামক	-8.40612
▁দিকে	-8.407
▁ভুল	-8.40898
▁পূরণ	-8.40997
7	-8.4102
▁টগল	-8.41022
▁ডিরেক্টরী	-8.41039
▁নেওয়া	-8.41078
ধান	-8.411
▁পড়	-8.41663
▁উপস্থিতি	-8.41686
▁বার্তাগুলি	-8.41936
AR	-8.42284
▁P	-8.42828
▁ধরণ	-8.4304
▁পারবেন	-8.43557
▁XML	-8.43651
▁রেকর্ড	-8.43663
▁ধার্য	-8.43668
▁বেশি	-8.43701
▁স্ক্যান	-8.43728
▁স্বাভাবিক	-8.43805
▁মিনিট	-8.44009
▁সপ্তাহ	-8.44068
▁ক্যাশে	-8.44159
▁অনুসূচী	-8.44847
ক্ত	-8.45141
বোর্ড	-8.45244
▁তে	-8.45329
▁ব্যস্ত	-8.45729
BA	-8.45785
▁প্রতিনিধি	-8.45845
▁ওয়েবপেজ	-8.45979
▁উচিত	-8.46364
▁GroupWise	-8.46366
▁প্রত্যাশিত	-8.46416
▁মেইলিং	-8.46693
▁সেটি	-8.4678
▁প্রকল্পটি	-8.47148
▁পর	-8.47221
mac	-8.47351
▁অপারেশন	-8.47394
}"	-8.47736
▁অতি	-8.48249
▁অ্যালার্ম	-8.48511
▁সুসংগত	-8.4863
▁সর্ব	-8.48635
▁মহাসাগর	-8.49143
▁মাউস	-8.49144
▁প্রত্যাখ্যান	-8.49144
▁প্রারম্ভিক	-8.49226
▁প্রতিক্রিয়া	-8.49265
▁কারণে	-8.49323
▁ভিত্তি	-8.49367
▁ক্যামেরা	-8.49417
▁বিতরণ	-8.49807
(	-8.49822
▁প্রেরক	-8.5008
▁S	-8.50874
সব	-8.51042
▁GN	-8.51042
ছেন	-8.51464
▁মেয়াদ	-8.51989
▁ফরওয়ার্ড	-8.52
▁কর্মস্থল	-8.52
টেক্সট	-8.52029
▁সূচনা	-8.52142
▁অবস্থানে	-8.52206
▁অত্য	-8.52255
▁বাড়	-8.53168
▁সমাপ্তি	-8.53176
▁এক্স	-8.54907
▁যৌথ	-8.5493
▁রূপান্তর	-8.5493
▁তৈরী	-8.54932
▁ফ্রেম	-8.54968
▁এনকোডিং	-8.55197
▁লিস্ট	-8.5548
▁উল্লেখিত	-8.55542
মনে	-8.56706
▁অংশে	-8.57061
▁অধিক	-8.5718
ু	-8.5755
▁উপেক্ষ	-8.57801
▁IC	-8.57902
▁অক্ষর	-8.57915
Windows	-8.5796
▁পরিসেবা	-8.57961
▁সহায়িকা	-8.57961
HTML	-8.57961
▁খোলো	-8.57978
খন	-8.58016
▁ডিবাগ	-8.58042
▁বৃদ্ধি	-8.58111
▁ফোন	-8.58212
▁কোড	-8.58506
ওয়ার্ক	-8.58613
PI	-8.58814
▁আর্কাইভে	-8.58883
▁কার্যকর	-8.59067
▁অনুসন্ধানে	-8.59257
▁কাজে	-8.5977
▁লাইন	-8.60133
▁নির্দেশ	-8.60497
lot	-8.60547
▁নীচে	-8.60875
▁উপরে	-8.61049
▁সতর্কবার্তা	-8.61088
▁অবাঞ্ছিত	-8.61088
▁অসমর্থিত	-8.61092
▁ইতিমধ্যে	-8.61128
▁প্রবেশযোগ্য	-8.61144
▁পছন্দসমূহ	-8.61213
▁স্ক্রল	-8.61249
▁বিনিময়	-8.61253
▁করেছে	-8.61504
▁মাত্রা	-8.61505
▁ঠিকানাবইয়ে	-8.61773
সূচক	-8.61799
▁ডান	-8.62277
▁পরিচালনা	-8.62995
ম্প্রতি	-8.63003
▁প্রমাণ	-8.63049
▁গেছে	-8.64142
▁সম্প্রসারণ	-8.64311
▁নিয়ন্ত্রণ	-8.64314
▁লেবেল	-8.64396
▁চি	-8.6441
▁পরিশোধন	-8.64456
েছে	-8.64727
বিশেষ	-8.65045
the	-8.65063
▁লক	-8.65269
▁চালানো	-8.65347
গুলোকে	-8.65388
▁ফরম্যাট	-8.65445
▁ব্যক্তি	-8.65579
▁জ	-8.65633
▁ঘর	-8.65724
▁০	-8.65751
▁সংখ্য	-8.66046
▁ব্যবস্থাপক	-8.66144
▁পরীক্ষণ	-8.66298
▁চ্যাট	-8.66615
্ত	-8.66883
▁ফোল্ডারটি	-8.66885
UTF	-8.67194
▁পারবে	-8.67419
▁খেলোয়াড়	-8.67645
▁প্রযুক্তি	-8.67645
▁অনুভূমিক	-8.67646
▁সর্বদা	-8.67647
▁পুরোনো	-8.67664
রা	-8.67675
▁ক্র্যাশ	-8.67732
ড়িত	-8.67748
▁সরানো	-8.67755
▁যাও	-8.67759
▁আবার	-8.67817
▁প্রয়োজনীয়	-8.67821
▁ঠিকানাবই	-8.6794
▁প্রশ	-8.67959
▁স্কোর	-8.68005
ব্যস্ত	-8.68429
▁আকারে	-8.68498
▁হোস্টে	-8.68506
দ	-8.68522
▁বস্তুটি	-8.68916
▁য	-8.69888
লে	-8.69984
▁প্রস্তুত	-8.69992
▁F	-8.70367
▁প্রমাণীকরণ	-8.70635
{	-8.70865
▁পোর্ট	-8.71088
▁GConf	-8.71093
▁উপলব্ধ	-8.71093
▁ফলাফল	-8.71093
▁সরাসরি	-8.71093
▁সারসংক্ষেপ	-8.71093
IBM	-8.71099
▁স্ট্রিং	-8.71099
▁সুনির্দিষ্ট	-8.71104
▁খুঁজুন	-8.71126
▁সংক্ষিপ্ত	-8.71132
▁পারেনি	-8.71332
▁C	-8.71571
▁ভাবে	-8.7161
▁প্রোগ্রামটি	-8.72136
▁ম	-8.72842
▁নিচে	-8.73062
▁নিম্ন	-8.73065
▁করেন	-8.73092
▁বাক্স	-8.73565
▁হোস্ট	-8.7375
▁পৃথক	-8.74484
য়ের	-8.74572
▁বরাদ্দ	-8.74614
▁টুল	-8.74631
▁মানানসই	-8.74664
▁অ্যানিমেশন	-8.74664
▁স্বনির্বাচিত	-8.74665
▁বিভক্ত	-8.74666
▁খুজ	-8.74669
▁পর্যন্ত	-8.74669
▁বেশী	-8.74677
▁পুনরাবৃত্তি	-8.74716
▁চীনা	-8.74772
▁রুমে	-8.74785
▁পেতে	-8.74849
▁সংক	-8.75005
▁একই	-8.75024
None	-8.75741
▁শেষে	-8.75959
:(_	-8.7611
▁কর	-8.76195
}'	-8.76264
আউট	-8.76391
ড	-8.76586
▁দেখ	-8.76652
▁বিন্যাসে	-8.77223
▁মধ্য	-8.77437
▁স্ক্রীনে	-8.77542
▁ভাষা	-8.77776
▁আম	-8.78147
▁GNOME	-8.78368
▁ট্যাবলৌ	-8.78368
▁রুহিতন	-8.78368
▁দ্বিতীয়	-8.78368
▁গণনা	-8.78375
▁অবশিষ্ট	-8.78375
▁দুই	-8.78382
▁প্রণালী	-8.78383
▁সীমা	-8.7845
▁বানান	-8.78496
অগ্রসর	-8.78517
▁সিস্টেমে	-8.7859
▁সময়সীমা	-8.78619
▁করবেন	-8.78731
হলে	-8.78735
▁প্লাগইন	-8.7981
▁ভিন্ন	-8.80369
▁গান	-8.8043
াল	-8.80505
গিয়ে	-8.81823
▁দুটি	-8.82163
▁চলছে	-8.82219
▁সোর্স	-8.82235
▁অক্ষম	-8.82244
▁ফাইলগুলো	-8.82245
▁MiB	-8.82263
▁সিরিলিক	-8.8231
▁প্রস্তাব	-8.82415
মান	-8.82604
শক	-8.82621
▁HTTP	-8.82724
▁জুড়ে	-8.82736
▁একক	-8.82939
▁হোক	-8.82964
▁স্মরণলিপি	-8.8307
করণ	-8.83504
▁আমা	-8.83707
রি	-8.83775
▁সমাপ্ত	-8.8544
কুচিত	-8.85965
▁দক্ষতা	-8.86214
▁বিকল্প	-8.86214
▁True	-8.86224
▁প্লেইন	-8.8623
▁তখন	-8.86296
▁আরো	-8.86491
▁Yahoo	-8.86528
of	-8.86542
▁%.	-8.87227
▁স্প	-8.87281
▁যাওয়া	-8.87294
▁ইম	-8.87552
▁গন্তব্য	-8.87559
DVD	-8.87624
▁Key	-8.87947
মা	-8.88084
J	-8.88125
▁নিজে	-8.88803
হ	-8.88853
%%	-8.8943
▁অ্যাকাউন্টে	-8.89772
▁পর্যাপ	-8.89802
ফ	-8.89906
▁বাছাই	-8.90174
▁নিজস্ব	-8.90381
▁শুদ্ধতা	-8.90381
▁সফটওয়্যার	-8.90381
▁আপডেট	-8.90381
▁থাম্বনেইল	-8.90381
▁হয়েছিল	-8.90387
▁কয়েক	-8.9039
▁অনুমান	-8.90417
▁যাচাই	-8.90453
Free	-8.90464
▁গেলে	-8.90496
▁আঙ্গুল	-8.9057
▁সর্বোচ্চ	-8.90595
▁হলো	-8.90612
▁জুটি	-8.90714
▁ডেস্কটপ	-8.90742
windows	-8.90908
▁সা	-8.90954
চ	-8.91294
▁ক্লিপবোর্ডে	-8.91551
ছে	-8.92057
্রান্ত	-8.92536
▁A	-8.93091
াস	-8.93255
▁বইয়ে	-8.93964
গত	-8.93974
▁কার্য	-8.94124
▁জি	-8.94162
বোধ	-8.94434
গ	-8.94475
▁to	-8.94648
▁ফাউন্ডেশন	-8.94729
▁শৈলী	-8.94729
▁vCard	-8.94729
▁CMS	-8.9473
▁উল্লম্ব	-8.9473
▁আবহাওয়া	-8.9473
▁উৎপন্ন	-8.94731
▁পছন্দনীয়	-8.94732
true	-8.94742
▁ঘটনা	-8.94775
▁আলাপন	-8.94805
▁অবৈধ	-8.94832
▁স্বাক্ষরকারী	-8.94844
▁মানসমূহ	-8.95184
▁অফিসে	-8.95232
▁অ্যাকাউন্টটি	-8.95329
▁ইমেইল	-8.95511
▁হাতে	-8.95688
▁ছক	-8.96017
▁type	-8.96132
পূর্বক	-8.96195
▁তম	-8.96546
▁মডিউল	-8.9662
ly	-8.96727
▁সমাধান	-8.97017
ভিন্ন	-8.97048
ীত	-8.97228
▁for	-8.97327
▁অন্ত	-8.9755
ঞ্জ	-8.97991
▁ডায়ালগ	-8.98851
Mac	-8.99184
▁পদ্ধতি	-8.99274
▁এক্সটেনশন	-8.99274
▁iCalendar	-8.99275
▁মডেল	-8.99275
▁বিশ্বাস	-8.99276
▁আবহ	-8.9928
▁অবতার	-8.99284
ুল	-8.99298
▁এন্ট্রি	-8.99327
▁দেখানো	-8.99462
▁ড	-8.99484
▁দিতে	-8.99517
▁ধারণ	-8.99625
▁Outlook	-8.99754
SSL	-8.99768
▁পূর্ণ	-8.99889
▁ওয়েবপেজটি	-9.00056
▁ঘন্টা	-9.00126
▁সিমুলেশন	-9.00133
তালিকা	-9.0046
war	-9.00657
ান্ত	-9.00719
মধ্যে	-9.00972
▁সময়ে	-9.01397
▁আট	-9.014
লিত	-9.01409
▁বাক্সে	-9.01441
▁নামটি	-9.02428
নে	-9.02762
ান	-9.03425
com	-9.03967
▁বাইন্ড	-9.03994
▁নিরাপত্তা	-9.04036
▁প্রতিলেপন	-9.04036
imian	-9.04038
▁স্টার্ট	-9.04038
▁সর্বনিম্ন	-9.04039
▁Connector	-9.04039
▁SIP	-9.04052
▁Soft	-9.04057
▁ব্যাকএন্ড	-9.04059
কালে	-9.04075
▁বিচ্ছিন্ন	-9.04148
▁অনুরূপ	-9.04148
▁স্ক্রিপ্ট	-9.04163
://	-9.04242
▁ওপর	-9.04271
ুন	-9.04433
ফাস্ট	-9.04438
▁লাইসেন্সে	-9.04443
▁কম	-9.04525
▁পূর্বনির্ধারিত	-9.04544
▁দরু	-9.04553
▁এটা	-9.04557
▁স্ক্রিনে	-9.05013
▁সন্ধান	-9.05119
▁প্যানেল	-9.05272
নো	-9.05303
হয়েছে	-9.05436
▁কথোপকথন	-9.05716
▁পাঠা	-9.05767
১	-9.06143
াইপ	-9.06422
ed	-9.06488
▁মত	-9.06527
▁ধর	-9.0786
▁J	-9.08023
ing	-9.08042
▁সঞ্চাল	-9.08044
স্ত	-9.0825
▁খেল	-9.08497
▁টাইপ	-9.09
▁মাইগ্রে	-9.09031
▁Skype	-9.09036
▁এক্সট্র্যাক্ট	-9.09036
▁স্যুট	-9.09036
▁টানেল	-9.09036
▁গুরুত্বপূর্ণ	-9.09037
▁ইঙ্গিত	-9.09039
▁ছাড়া	-9.09058
▁পরিমান	-9.09067
▁পুনঃ	-9.09135
▁স্থগিত	-9.0915
▁উত্তীর্ণ	-9.09152
▁৪	-9.09153
cal	-9.09172
▁বিপ	-9.0922
▁পয়েন্টার	-9.09309
▁সাদা	-9.09421
▁দ	-9.09463
▁সরল	-9.09501
Inc	-9.09609
▁ব্যবহারে	-9.09706
ীন	-9.09792
জন	-9.09877
▁অনলাইন	-9.10518
▁আগ	-9.10593
▁মূল্য	-9.10628
সময়	-9.1073
lu	-9.11396
MIME	-9.11652
abber	-9.11752
▁রঙে	-9.11868
▁ক্রম	-9.11888
▁সেকেন্ড	-9.12293
ic	-9.12353
▁গ্রুপ	-9.1236
▁বাটন	-9.12625
▁ভাগ	-9.12821
▁ভ	-9.13129
▁প্রকল্পে	-9.13462
থ	-9.13744
▁AI	-9.14128
▁ওয়ারেন্টি	-9.14299
▁প্যারেন্ট	-9.14299
▁বুলিয়ান	-9.14299
▁রেজল্যুশন	-9.14299
▁এক্সপ্রেশন	-9.14299
▁বহির্বিন্যাস	-9.14299
▁বিপরীত	-9.14299
▁Foundation	-9.143
▁সার্ভিস	-9.14301
▁হেডার	-9.14306
▁মধ্যবর্তী	-9.14312
▁কার্যতালিকা	-9.14318
▁শীর্ষক	-9.14324
▁ত্রুটিপূর্ণ	-9.14349
গনোম	-9.1437
▁বৈধতা	-9.14402
▁তিন	-9.14451
▁বন্ট	-9.14738
টা	-9.14763
▁খুব	-9.14809
▁সক্ষম	-9.14873
▁নিয়ম	-9.14936
▁আসলে	-9.14995
▁দেখান	-9.15186
▁একটা	-9.16046
মূলক	-9.16086
▁৫	-9.16209
▁চাপা	-9.16913
Type	-9.17111
▁পিক্সেলে	-9.17579
কাল	-9.17613
কাট	-9.18185
অ	-9.18493
▁উপাদান	-9.18494
▁ইনবক্স	-9.18548
▁জান	-9.1872
le	-9.19166
it	-9.19326
ar	-9.19331
/%	-9.19404
মাত্র	-9.19436
▁সাব	-9.19436
▁Mi	-9.19495
▁কারণ	-9.19502
▁প্রশা	-9.19513
▁ISO	-9.19731
or	-9.19745
▁অনুসরণ	-9.1983
▁শর্ট	-9.19848
▁SMTP	-9.19855
▁খসড়া	-9.19855
▁ধাঁধা	-9.19855
▁সতর্কবাণী	-9.19855
▁উৎসস্থল	-9.19856
▁সূচনাপ্রদান	-9.19857
▁সত্যি	-9.19928
▁পার্শ্ব	-9.19972
▁প্রদানকারী	-9.2
ext	-9.2001
▁কিলোবাইট	-9.20131
▁Permissions	-9.20133
▁কীবোর্ড	-9.2015
▁লেখক	-9.2025
bn	-9.2038
▁user	-9.2059
▁সর্বমোট	-9.20595
▁সামনে	-9.20763
াপনে	-9.21268
বর্জন	-9.21534
▁প্লেলিস্ট	-9.21536
▁time	-9.21757
▁উন্নত	-9.21902
mail	-9.2216
▁name	-9.22285
▁আমি	-9.2229
▁Ja	-9.22434
▁পেজ	-9.22492
▁প্রদর্শনক্ষেত্র	-9.22621
UN	-9.2289
▁বলে	-9.2294
আড়াল	-9.23031
▁হবেন	-9.23199
স্ট	-9.23485
▁দেয়	-9.23616
▁_	-9.24302
গম	-9.24469
▁হয়ত	-9.2454
▁সাইট	-9.24856
▁অন	-9.25105
▁সংরক্ষণের	-9.25146
▁কম্পিউটার	-9.25202
সা	-9.25238
ত্ত	-9.25286
শিষ্ট	-9.25302
▁দ্রুত	-9.25501
▁দৃশ্যমান	-9.25712
▁প্রযোজ্য	-9.25737
▁শূণ্য	-9.25737
▁চাইল্ড	-9.25738
▁সুরক্ষিত	-9.25742
▁আমন্ত্রণ	-9.25742
▁এপিফানি	-9.25742
▁প্রতিবেদন	-9.25747
▁সেটিংসমূহ	-9.25749
▁ইনস্টলেশন	-9.25752
▁তারপর	-9.25756
▁ধারণকারী	-9.25764
▁অনুমোদিত	-9.25771
▁প্রমিত	-9.25785
ww	-9.25823
▁এক্সচেঞ্জ	-9.25868
▁জিজ্ঞাসা	-9.25869
▁আদর্শ	-9.25871
▁পাঠযোগ্য	-9.25895
▁ধীর	-9.26007
▁মিডিয়া	-9.26035
▁কর্মসূচী	-9.26036
▁সু	-9.2614
▁কার্ড	-9.26194
টির	-9.262
▁পূর্বাবস্থা	-9.26211
ion	-9.26604
▁ঠিক	-9.26636
"।	-9.26717
▁ST	-9.2674
▁সংক্	-9.26753
ডি	-9.2677
▁স্তূপ	-9.26978
▁বাডি	-9.27237
▁অনেক	-9.27267
▁সেট	-9.27539
▁পরিবর্তনগুলো	-9.27587
নি	-9.276
রান্ত	-9.27602
for	-9.27635
cros	-9.283
লা	-9.29008
name	-9.29179
▁যুক্ত	-9.29179
Key	-9.29317
▁স্ট্যাটাসবার	-9.29628
▁Bo	-9.29896
▁in	-9.30145
mm	-9.30289
▁প্রদর্শনে	-9.30658
▁একে	-9.30997
▁বের	-9.3118
প্রেরকের	-9.31258
▁আজ	-9.31572
▁গোপনীয়	-9.31589
▁বার্তাগুলো	-9.31658
z	-9.31728
▁রুম	-9.31796
▁সরান	-9.3189
▁ফির	-9.31958
Show	-9.31987
▁Netmeeting	-9.31987
▁অজ্ঞাত	-9.31987
▁ইন্টারফেস	-9.31987
▁ডিসপ্লে	-9.31987
▁দ্বীপপুঞ্জ	-9.31987
▁চোখ	-9.31988
▁পূর্ণপর্দা	-9.31988
hint	-9.31989
▁টিপুন	-9.31995
▁নিয়ন্ত্রন	-9.31999
▁কম্পোসার	-9.32018
মীমাংস	-9.32027
▁ইনলাইন	-9.32049
oft	-9.32069
▁উদাহরণ	-9.32137
▁পুরো	-9.32141
▁প্রদর্শক	-9.32237
▁ধাপ	-9.32239
▁string	-9.32312
▁MS	-9.3232
▁নামকরণ	-9.32355
▁নোড	-9.32426
▁PGP	-9.32462
▁শ্রেণী	-9.32473
▁সংস্করণে	-9.32615
▁ট্রি	-9.3272
▁বিট	-9.32793
▁Web	-9.32855
▁সেগুলো	-9.32997
▁state	-9.33
ৎ	-9.3305
বল	-9.3312
০	-9.3316
▁যেমন	-9.33366
▁সেটআপ	-9.33399
▁পাঠ	-9.33463
▁দল	-9.3353
im	-9.33603
▁সম্	-9.33853
▁/	-9.33909
ke	-9.34131
▁an	-9.3414
স্থ	-9.34145
▁জানা	-9.34487
িয়া	-9.34578
gconfd	-9.34638
আ	-9.34653
▁চেয়	-9.34892
আপনার	-9.35073
ব্যবহারকারী	-9.35683
▁re	-9.35697
িষ্ট	-9.35835
}"-	-9.35899
▁কার	-9.36406
▁অ্যাপলিকেশন	-9.36451
▁কম্পোনেন্ট	-9.36461
কা	-9.3651
▁প্যারামিটার	-9.36675
SV	-9.3682
▁.	-9.37081
▁উইন্ডোজ	-9.37091
▁নির্দেশক	-9.37176
▁সাহায্য	-9.37387
▁আগে	-9.37473
▁ফেলে	-9.37754
▁বাদ	-9.37828
help	-9.37987
▁পূর্ব	-9.38276
▁ফর্ম	-9.38281
খ	-9.38302
▁মুদ্র	-9.38502
▁রিসোর্স	-9.38613
▁লুক	-9.38629
▁ইনডেক্স	-9.38654
▁টেলিপোর্ট	-9.38654
▁সাহেব	-9.38654
▁রিফ্রেশ	-9.38654
▁সফ্টওয়্যার	-9.38654
▁মৌলিক	-9.38654
▁চেকসাম	-9.38654
▁অবধি	-9.38656
▁কার্সার	-9.38659
tool	-9.38665
▁USA	-9.38691
▁পরিমাণ	-9.38699
▁খোঁজো	-9.38714
▁বিভাগ	-9.38721
▁আনুন	-9.38723
▁বার্স্ট	-9.38728
▁বাঁদিক	-9.38738
▁ক্ষমতা	-9.38765
▁তথ্যাবলী	-9.38773
▁ইউরোপীয়	-9.38785
▁পছন্দসই	-9.38797
▁ডাকনাম	-9.38798
▁be	-9.3885
▁কোথা	-9.39144
যোগে	-9.39183
▁ব্যবস্থাপনা	-9.39203
▁অংশগ্রহণকারী	-9.3934
▁পরিবর্তনগুলি	-9.3944
▁সে	-9.39492
▁বামে	-9.3954
▁সোয়	-9.39556
▁চ	-9.40389
ton	-9.40448
▁মার্ক	-9.40578
day	-9.40829
▁উপ	-9.41282
link	-9.41434
▁সংগ্রহস্থলে	-9.41804
bber	-9.41954
এন্ড	-9.41983
▁To	-9.4207
”-	-9.42155
জ	-9.42358
tar	-9.4249
মুখী	-9.42513
৫	-9.42686
▁নেটওয়ার্কে	-9.43479
▁ডানে	-9.43661
চেয়	-9.4371
and	-9.43944
▁মেইলবক্স	-9.44029
▁উৎ	-9.44172
▁অবস্থ	-9.44256
৬	-9.44312
কার	-9.4439
nk	-9.44676
রত	-9.4472
কাজ	-9.44791
▁আসল	-9.44918
▁ক্যালেন্ডারে	-9.4499
▁উপযুক্ত	-9.45449
বইয়ে	-9.45472
▁ডেভেলপার	-9.45718
▁দৈর্ঘ্য	-9.45797
▁স্বাগতম	-9.45797
▁ব্যাপারে	-9.45797
▁গরমিল	-9.45797
▁প্রসেস	-9.45798
▁বামহাত	-9.45798
▁নিউজগ্রুপ	-9.45799
▁সামগ্রী	-9.45801
▁চলমান	-9.45806
▁বাগজিলা	-9.45814
▁দাও	-9.45821
ard	-9.45844
▁কথা	-9.45859
▁ছিল	-9.45862
▁অংশগ্রহণকারীদের	-9.45879
▁কোডেক	-9.4588
▁অভ্যন্তরী	-9.459
▁প্রারম্ভ	-9.45939
▁বহিঃ	-9.45941
▁সহকারী	-9.45944
▁দক্ষিণ	-9.45948
▁হিব্রু	-9.45948
▁ইউনিকোড	-9.45949
▁সংগঠক	-9.46083
তো	-9.46344
▁একত্র	-9.46654
end	-9.46737
OP	-9.46948
▁মাইন	-9.47113
▁সূচি	-9.47195
▁হলেও	-9.47235
যোগ	-9.47464
েল	-9.48027
▁T	-9.48167
▁আঁকা	-9.48208
▁নোট	-9.48644
▁Fra	-9.48834
▁উন্ন	-9.49084
at	-9.49193
গা	-9.49357
য়া	-9.49637
isc	-9.49716
▁ডকুমেন্ট	-9.49809
▁প্রদ	-9.49863
▁খাঁজ	-9.49993
time	-9.50058
ma	-9.50069
▁ধারা	-9.50297
▁ভাষার	-9.50373
▁করছে	-9.50403
দিন	-9.50552
number	-9.50566
িভ	-9.50669
যুক্ত	-9.50735
Meeting	-9.50752
▁DT	-9.51009
NU	-9.51035
▁নিজ	-9.51076
▁ইভেন্ট	-9.51123
▁প্রা	-9.5113
ইনের	-9.51276
▁ক্লিপবোর্ড	-9.51333
get	-9.51487
▁মো	-9.51656
▁এনকোড	-9.52034
দান	-9.52111
▁পাঠ্য	-9.52124
▁কাছ	-9.52207
um	-9.52366
▁অপশনটি	-9.5274
▁সাজান	-9.53168
in	-9.53334
বর্তী	-9.53341
isofs	-9.53488
TION	-9.53489
▁Image	-9.53489
▁SpamAssassin	-9.53489
▁ড্যাশার	-9.53489
▁বিশ্লেষ	-9.53489
▁ভয়েস	-9.53489
▁রোবোট	-9.53489
▁সিমলিংক	-9.53489
▁ফোকাস	-9.53489
▁অবচয়	-9.53489
▁প্রশাসক	-9.53491
▁বিবর্ধক	-9.53494
▁ভালো	-9.53511
▁প্রতিষ্ঠান	-9.53513
▁১০০	-9.53521
▁সনাক্তকরণ	-9.53555
oogle	-9.5357
▁পশ্চিমা	-9.53585
▁ছাঁদ	-9.53588
▁জন্মদিন	-9.53651
▁sendmail	-9.53651
▁তুর্কি	-9.53664
med	-9.53676
map	-9.53711
▁লেখ	-9.53812
▁অতিক্রান্ত	-9.53826
▁বু	-9.53863
▁টেন	-9.53907
▁পাঁচ	-9.54082
▁ড্রাইভার	-9.54172
▁উল্লেখ্য	-9.54261
▁সময়কাল	-9.54398
সি	-9.54437
▁এড়	-9.5457
am	-9.54683
▁মাপে	-9.54769
▁is	-9.55146
ঙ্	-9.55248
▁অফলাইনে	-9.55284
▁বাম	-9.55337
▁সঞ্চালন	-9.55502
▁থাকবে	-9.5569
সিস্টেম	-9.55709
Flo	-9.56333
▁ন	-9.56438
▁ভারত	-9.56502
▁ডিরেক্টরিটি	-9.56619
▁বিষয়টি	-9.56713
▁ড্রাইভ	-9.57155
উ	-9.57195
▁অ্যা	-9.5729
j	-9.57481
▁কমা	-9.58372
২	-9.58373
সাক্ষাৎকার	-9.58709
)।	-9.58758
লি	-9.5884
কিছু	-9.58885
net	-9.58931
menu	-9.58981
Import	-9.59013
type	-9.59142
▁ছাপ	-9.59423
▁সার্টিফিকেটটি	-9.5945
ানো	-9.59762
TLS	-9.59879
ায়	-9.60065
lin	-9.60139
ম্য	-9.60298
▁স্ক্রিন	-9.60386
▁দশ	-9.60421
▁সম	-9.60607
DA	-9.60791
▁O	-9.60986
লান	-9.61262
NE	-9.6137
▁বিষয়ে	-9.6156
po	-9.61647
▁lib	-9.61758
▁সাময়িক	-9.61776
▁সাইড	-9.6179
▁নিবন্ধন	-9.61796
▁সাক্ষাৎ	-9.61797
▁অস্ট্রেলিয়া	-9.61822
▁এপিফ্যানি	-9.61822
▁কন্ট্রোল	-9.61822
▁ডোমেইন	-9.61822
▁সদস্য	-9.61822
▁সলিটেয়ার	-9.61822
▁সাফল্য	-9.61822
▁হ্রাস	-9.61822
▁সার্বজনীন	-9.61823
▁ঘড়ি	-9.61828
▁এভিন্স	-9.61829
▁কাঁটা	-9.61837
▁SVCD	-9.61837
▁প্রকৃতি	-9.61849
▁পাইলট	-9.6185
▁সূচনাবার্তা	-9.61852
▁Ta	-9.61865
▁একাউন্ট	-9.61886
▁কুকি	-9.61889
▁প্যাকেজ	-9.61901
▁ডেভেলপারদের	-9.61915
▁পাঠান	-9.61966
▁গৃহীত	-9.61982
▁cdr	-9.61989
▁বিকৃত	-9.6206
▁পাশা	-9.62197
▁১৯	-9.622
▁মোট	-9.62206
▁স্লাইড	-9.62224
▁cdrecord	-9.62229
ব্যাপ	-9.62282
er	-9.6229
▁১০	-9.62295
▁হোন	-9.62393
▁প্রেরকে	-9.62442
▁সত্য	-9.6251
NO	-9.62541
▁পড়ুন	-9.62541
শ্ল	-9.6272
ld	-9.62735
▁পেয়ে	-9.62811
▁কাজগুলো	-9.62848
▁অব	-9.62944
▁TO	-9.63025
▁ডাটাবেস	-9.63113
▁পক্ষে	-9.63171
▁প্রদর্শনযোগ্য	-9.6365
▁ডায়লগ	-9.63665
▁ফোল্ডারগুলি	-9.63964
▁ha	-9.63966
▁ইন্টারনেট	-9.63972
রিপোর্ট	-9.64043
▁টুলবারে	-9.64242
ঞ্জা	-9.64264
mar	-9.64402
▁TLS	-9.64502
পি	-9.64604
▁এক্সপ	-9.64984
▁স্ট্যাটাস	-9.65604
▁অনুষ্ঠান	-9.65727
▁MIME	-9.66238
▁"--	-9.6635
lo	-9.66522
▁কর্মে	-9.66628
▁চাপ	-9.66823
▁আরম্ভে	-9.66934
অথ	-9.67432
সেকেন্ড	-9.67473
্টিক	-9.67489
কী	-9.67779
প্রত্যুত্তর	-9.67881
৪	-9.68036
http	-9.68182
▁ব্রাউজারে	-9.68303
রুন	-9.68515
pro	-9.68546
all	-9.68897
▁item	-9.69026
▁বিভাজ	-9.69261
▁থাক	-9.69528
▁নথির	-9.69909
াবে	-9.7004
if	-9.70158
▁অধীন	-9.70663
স্ক্রাইব	-9.70667
▁অনু	-9.70672
▁উত্	-9.70754
▁হাইলাইট	-9.70901
▁স্বয়ং	-9.70912
General	-9.70913
desktop	-9.70913
▁অ্যালগরিদম	-9.70913
▁টেক্কা	-9.70913
▁দীর্ঘ	-9.70913
▁যথোপযুক্ত	-9.70913
▁গোলাম	-9.70914
Street	-9.70914
▁উলম্ব	-9.70915
▁বার্ষিকী	-9.70916
▁Open	-9.70916
Manager	-9.70916
▁নিকট	-9.70918
▁কোয়েরি	-9.70919
▁কনসোল	-9.70922
▁সাপ্তাহিক	-9.70922
▁শেল	-9.70923
▁গিয়েছে	-9.70924
▁কাটুন	-9.70929
▁বাস্তবায়	-9.7093
▁আবদ্ধ	-9.70931
▁বাজান	-9.70943
csv	-9.70953
key	-9.70958
gnome	-9.7096
▁Y	-9.70966
org	-9.70979
▁"-	-9.70981
▁কমিক	-9.71016
▁জিপ	-9.71046
▁বাইরে	-9.71054
▁সকেট	-9.71097
▁লাইব্রেরী	-9.71107
▁যেকোন	-9.71117
ppointment	-9.7114
▁সেটিংস	-9.71203
▁চলে	-9.7121
▁অধীনে	-9.71214
▁ড্রাইভটি	-9.71284
▁লিস্টে	-9.71289
▁pass	-9.71323
▁=	-9.7153
SL	-9.7154
RW	-9.71605
▁সহজ	-9.71833
▁কর্মতালিকা	-9.71875
▁ফ	-9.72006
▁ফর্মা	-9.72055
▁সারাংশ	-9.72099
টিং	-9.72154
▁#	-9.7228
are	-9.72303
▁বিভাজন	-9.72413
বক্স	-9.72489
জা	-9.72591
্পট	-9.72701
up	-9.72842
খানে	-9.72884
▁file	-9.73073
ame	-9.7311
ty	-9.73149
▁নির্বাচক	-9.73154
▁সতর্কতা	-9.73157
re	-9.73209
এস	-9.73231
IN	-9.73302
▁ফাইলসমূহ	-9.73335
en	-9.73424
▁প্রম	-9.73431
রকম	-9.74083
▁Meeting	-9.74271
▁একবার	-9.74339
▁IM	-9.74345
de	-9.74398
ুর	-9.74665
cent	-9.74884
ri	-9.75017
▁শতাংশ	-9.75095
▁চেক	-9.75182
▁খাঁজে	-9.7524
িন	-9.75349
▁RS	-9.7543
▁ঘ	-9.75493
▁ইনস্ট্যান্	-9.76058
▁মিল	-9.76311
রে	-9.76413
▁%(	-9.76457
ানী	-9.76479
▁আলাদা	-9.77135
▁লাইনে	-9.77184
▁প্রজ্ঞাপন	-9.77276
ডিফল্ট	-9.77505
▁ইত	-9.77793
▁চ্যানেল	-9.77848
পরবর্তী	-9.77866
gg	-9.77893
th	-9.77913
nl	-9.78029
লিখনযোগ্য	-9.78117
file	-9.78329
▁গ্	-9.78348
▁আনা	-9.78503
বিহীন	-9.7867
▁ডায়লগে	-9.78731
▁mail	-9.78833
ছ	-9.79345
▁প্রাপ্তি	-9.79722
সমাপ্ত	-9.79921
▁খেলাটি	-9.80032
▁কলটি	-9.80317
▁চলাকাল	-9.80448
ks	-9.80494
গল	-9.80763
ou	-9.80802
▁খোঁজ	-9.80821
▁ডি	-9.8084
▁সংবেদনশীল	-9.80875
Ctrl	-9.80913
preferences	-9.80913
▁License	-9.80913
▁PKCS	-9.80913
▁every	-9.80913
▁ইত্যাদি	-9.80913
▁ডেক্সটপ	-9.80913
▁ভূমিকা	-9.80913
▁প্রসারিত	-9.80913
▁ফিঙ্গারপ্রিন্ট	-9.80913
▁অগ্রগতি	-9.80913
▁টাইম	-9.80914
▁ডিক্রিপ্ট	-9.80914
▁Elm	-9.80914
▁প্রত্যাহার	-9.80914
▁Robots	-9.80915
▁জায়গা	-9.80915
▁আন্টার্কটিকা	-9.80916
XDG	-9.80916
▁চেপে	-9.80917
▁GiB	-9.80918
List	-9.80923
▁সংকোচন	-9.80927
Level	-9.80928
▁ভুক্তি	-9.80931
▁অনিরাপদ	-9.80936
▁নথিপত্র	-9.8094
▁সরাও	-9.80941
Subject	-9.80943
▁উচ্চ	-9.80943
▁বাফার	-9.80954
▁বিবি	-9.80962
▁আরবি	-9.80966
করা	-9.80973
▁আবর্তন	-9.80982
search	-9.81012
▁বর্ণ	-9.8105
▁থাই	-9.81094
▁ভরাট	-9.81107
ther	-9.81108
▁ekiga	-9.81114
▁অ্যান্টি	-9.81125
▁My	-9.8115
▁ফাঁকাকরণ	-9.81186
▁নির্ম	-9.81349
খালি	-9.81365
▁মাঝ	-9.81399
▁cdrdao	-9.81404
▁গড়	-9.81411
}-	-9.81422
KR	-9.81475
▁stdout	-9.81631
▁Devhelp	-9.81691
▁বহিস্থ	-9.82017
বশ্য	-9.82083
▁ম্যাপ	-9.82083
▁স্থ	-9.82217
▁লাগ	-9.82359
▁পারেনা	-9.8248
ce	-9.82601
▁প্রকাশনা	-9.82721
▁চার	-9.82799
▁পান	-9.82938
নাম	-9.82987
▁দেশ	-9.8302
▁সুসংগতি	-9.8307
▁প্রিন্টারে	-9.83127
SA	-9.83129
▁জয়	-9.83254
▁টার	-9.83764
▁CA	-9.83881
lic	-9.83996
▁লিখে	-9.84086
▁৬	-9.84268
▁L	-9.84268
per	-9.84523
▁কাট	-9.84901
st	-9.85666
▁সি	-9.85708
ক্ষেত্রে	-9.8596
▁বোতামে	-9.86015
▁যেকোনো	-9.86163
ভ	-9.86178
▁করছেন	-9.86239
▁গু	-9.86304
মার	-9.86394
▁th	-9.86442
▁or	-9.86592
▁কোরিয়	-9.86707
▁বদলা	-9.86724
▁টে	-9.86772
▁দর্শন	-9.868
েস	-9.86918
ord	-9.87057
op	-9.87389
াংশে	-9.87717
তি	-9.88049
jo	-9.88229
▁কম্প	-9.88401
book	-9.88433
▁ডায়ালগে	-9.88446
CA	-9.88594
বার্ন	-9.88692
ারের	-9.88881
লোবা	-9.89022
৩	-9.8905
উদাহরণস্বরূপ	-9.89168
▁ইন্টারনেটে	-9.89189
বিতরণ	-9.89256
বি	-9.89258
To	-9.8926
▁এগুলো	-9.89588
সেট	-9.89649
বাডি	-9.89818
▁সাম	-9.89975
য	-9.90243
▁গ	-9.90247
▁f	-9.90359
বো	-9.90442
প্রকাশ	-9.90529
▁পরিশোধ	-9.90923
▁সহজে	-9.90998
ইল	-9.91004
এল	-9.91555
এম	-9.91587
▁উদ্দেশ্য	-9.91614
▁প্রারম্ভে	-9.9174
▁ঘোরান	-9.91884
▁“	-9.91947
▁উদ্ধৃত	-9.91955
zilla	-9.92024
▁CORBA	-9.92024
▁Dasher	-9.92024
▁Nibbles	-9.92024
▁input	-9.92024
▁উল্টোগণনা	-9.92024
▁তৃতীয়	-9.92024
▁পর্যালোচনা	-9.92024
▁মানুষ	-9.92024
NTLM	-9.92024
▁উপস্থাপনা	-9.92025
▁ফিল্টার	-9.92025
Bcc	-9.92025
▁ক্যারেট	-9.92025
▁যথার্থ	-9.92025
▁Hula	-9.92026
▁শর্তাবলী	-9.92027
▁সতর্কীকরণ	-9.92028
▁অনুবৃত্তি	-9.92029
▁দিশা	-9.9203
▁নিউজ	-9.92031
▁তুলনা	-9.92032
START	-9.92033
▁পর্যায়ক্রম	-9.92033
▁ব্যবধান	-9.92035
▁আগমন	-9.92039
▁FTP	-9.92039
▁নোটিফ	-9.92044
▁বিপর্যয়	-9.92051
▁গ্রাফিক্স	-9.9206
▁সচল	-9.92065
bal	-9.92066
▁মালিক	-9.92085
▁ম্যানেজার	-9.92086
▁প্যান	-9.92121
সমষ্টি	-9.92131
▁ভিয়েতনামি	-9.9214
▁লুকান	-9.92147
▁ধ্বনি	-9.9216
GB	-9.92209
▁চালান	-9.9221
▁গঠন	-9.92214
text	-9.92219
▁ছয়	-9.92245
▁স্টিকি	-9.92247
▁অবস্থাসূচক	-9.9225
▁বাল্টিক	-9.92253
JP	-9.92268
▁তাড়া	-9.92282
▁২৪	-9.92312
▁সম্বন্ধে	-9.9239
▁সংরক্ষন	-9.92521
ক্ষিপ্ত	-9.9263
▁কভার	-9.92646
লগ	-9.92665
▁সাত	-9.92677
▁খেলায়	-9.92716
▁ওভার	-9.92725
options	-9.92763
signature	-9.92767
second	-9.92932
▁রূপ	-9.92944
▁প্রচ	-9.92952
▁Google	-9.92952
drive	-9.93011
▁ইন	-9.93222
▁প্যাকে	-9.93279
োলা	-9.93372
▁মানটি	-9.93396
লার	-9.9354
ং	-9.93554
▁ভিত্তিতে	-9.93559
▁স্পেস	-9.93565
▁স্বয়ংক্রিয়ভ	-9.93583
▁Name	-9.93929
lse	-9.93937
IS	-9.94006
▁সেখান	-9.94198
▁স্বচ্ছতা	-9.94213
▁ভিউতে	-9.94282
সবা	-9.94344
▁প্যাড	-9.94417
কের	-9.94653
line	-9.94718
▁আসরে	-9.94924
োনো	-9.95071
▁পয়েন্ট	-9.95382
▁http	-9.95504
্স	-9.95572
▁অঙ্ক	-9.95624
▁প্রস্তুতি	-9.95804
▁ব্যবসা	-9.9582
DN	-9.96105
▁কে	-9.96129
▁চালনা	-9.96139
স্তান	-9.96406
ফোল্ডার	-9.96444
▁হত	-9.96551
▁E	-9.96801
শিয়া	-9.97047
▁ফন্টে	-9.97363
▁শনাক্ত	-9.97668
▁বেইন	-9.977
date	-9.9784
সংরক্ষণ	-9.98158
")।	-9.98582
াইল	-9.98661
▁V	-9.98785
▁জেন	-9.98818
▁g	-9.9898
▁সার্টিফিকেটে	-9.9898
▁অপর	-9.99147
ift	-9.99456
▁বক্স	-9.9947
▁উইজেট	-9.99621
▁ন্যাভিগেটর	-9.99656
কারক	-9.99729
▁প্রক্রিয়াটি	-9.99868
ুয়াল	-9.99887
▁প্রকাশক	-10.0032
LE	-10.0105
৯	-10.0109
নির্ধারণ	-10.011
পড়া	-10.0123
▁থাকবেন	-10.013
প্রাপক	-10.0133
প্রদর্শন	-10.0151
বাইন্ডিং	-10.017
▁বোর্ডে	-10.0171
ভিত্তি	-10.0173
যেমন	-10.018
প্যাড	-10.0183
সেটআপ	-10.0184
▁fr	-10.0227
ir	-10.0228
পট	-10.0233
▁...	-10.0245
▁বে	-10.0272
▁ভা	-10.0309
নির্বাচিত	-10.0316
eric	-10.0317
ra	-10.0329
ধরনের	-10.0329
▁আঁ	-10.0337
২০	-10.0341
▁পার	-10.035
ent	-10.037
▁সেল	-10.0384
▁প্রিন্ট	-10.0387
▁অধি	-10.0391
WA	-10.0397
▁সম্বন্ধ	-10.0412
েও	-10.0419
ঠ	-10.042
ীকরণ	-10.0437
লিকায়	-10.0438
▁D	-10.0439
ক্যাম	-10.0446
াপন	-10.0452
▁জিজ্ঞ	-10.0452
▁Bogofilter	-10.0452
▁সাবস্ক্রিপশন	-10.0452
Insert	-10.0452
▁--------	-10.0452
▁AtkHyper	-10.0452
▁Cheese	-10.0452
▁অ্যাকউন্ট	-10.0452
▁ইঞ্জিন	-10.0452
▁টীকা	-10.0452
▁নিশ্চয়তা	-10.0452
▁মাহজং	-10.0452
▁লিনাক্স	-10.0452
▁সুডোকু	-10.0452
▁স্বত্বাধিকার	-10.0452
default	-10.0452
▁iPod	-10.0452
▁মনিটর	-10.0452
▁জাভাস্ক্রিপ্ট	-10.0452
▁স্থিতিবিন্যাস	-10.0452
▁ক্রমিকায়ন	-10.0452
▁ডিজিট	-10.0453
location	-10.0453
▁রেখাচিত্র	-10.0453
▁শেয়ার	-10.0453
▁Groupw	-10.0453
Big	-10.0453
▁সুবিধানুযায়ী	-10.0453
▁বিবিধ	-10.0453
RFC	-10.0453
▁ব্যবহারপ্রণালী	-10.0453
▁গুণমান	-10.0453
▁TX	-10.0453
▁সংকলন	-10.0453
▁অপারে	-10.0454
▁অপরিচিত	-10.0454
▁সংকেত	-10.0454
▁হ্যান্ড	-10.0454
▁কনটেক্সট	-10.0454
▁শর্টকাট	-10.0454
▁চলুন	-10.0454
▁অন্যত্র	-10.0455
িকেশন	-10.0456
▁আশা	-10.0456
one	-10.0457
▁অসম্পূর্ণ	-10.0457
▁UID	-10.0457
acebook	-10.0457
▁ওয়েবসাইট	-10.0458
▁যথাযত	-10.0458
▁প্রসারণ	-10.0459
▁বাক্য	-10.0459
CONF	-10.0459
▁জো	-10.046
hine	-10.046
▁উদ্ধৃতি	-10.0461
▁টাইপিং	-10.0463
▁ব্যক্তিরা	-10.0474
▁car	-10.0475
▁বেশ	-10.0476
▁ফুটার	-10.0477
▁trans	-10.0477
▁minute	-10.0477
▁বাধ্যতামূলক	-10.0478
▁gen	-10.0478
▁চাইতে	-10.0479
▁গ্রিক	-10.048
▁দেবে	-10.0481
▁জোড়া	-10.0482
▁জাপানি	-10.0483
▁ভবিষ্যতে	-10.0486
▁বিলম্ব	-10.0492
pg	-10.0497
পূর্বরূপ	-10.05
নার	-10.051
পন্ন	-10.052
▁উভয়	-10.0523
সের	-10.0524
by	-10.0533
পত্র	-10.0535
▁PLA	-10.0536
ink	-10.0537
▁ওয়েবক্যাম	-10.0545
▁ডানদিকে	-10.0549
▁রিং	-10.0552
set	-10.0555
uration	-10.0557
্বাধিক	-10.0557
SO	-10.0558
▁এখান	-10.0559
▁সীমানা	-10.0562
▁N	-10.0562
▁প্রতিবার	-10.0574
xpand	-10.0578
dir	-10.0586
▁প্রকার	-10.0593
▁MD	-10.0599
on	-10.0609
▁পথ	-10.0617
▁বোতামটি	-10.0618
▁নেট	-10.0619
▁লিংকটি	-10.0625
▁মিলিসেকেন্ডে	-10.063
ৃতি	-10.0637
▁কলে	-10.0644
▁with	-10.0663
াংশ	-10.0695
সাইট	-10.0695
▁সাইন	-10.0703
▁সংঘট	-10.0704
টের	-10.0712
▁সার্ভারটি	-10.0767
port	-10.0774
শন	-10.0777
▁টিপ	-10.0798
IM	-10.0812
লিস্টে	-10.0817
▁ডাই	-10.0825
▁চা	-10.0834
ড়ি	-10.0839
▁ট	-10.0849
াপ	-10.0851
▁ক্ষেত্রটি	-10.088
Cc	-10.0882
.%	-10.0887
▁আর্কাইভটি	-10.0889
য়ে	-10.0906
স্য	-10.0923
uid	-10.0938
▁দিক	-10.0943
▁খ	-10.0947
▁Cal	-10.0954
জি	-10.0963
▁অপরিবর্তন	-10.0968
#-#-#	-10.1017
▁মু	-10.1029
▁করেনা	-10.1031
▁মধ্যম	-10.1033
▁ভলিউম	-10.1064
▁ঘট	-10.1073
বই	-10.1085
tab	-10.1088
▁মাত্র	-10.1182
▁আই	-10.1215
▁%%	-10.1224
তন	-10.1239
▁বল	-10.1244
-#-#	-10.125
▁পরি	-10.13
▁গানে	-10.1301
ha	-10.1314
রিক	-10.1322
ubl	-10.1338
▁হার্ড	-10.1339
থেকে	-10.1339
▁কথোপকথনে	-10.137
ue	-10.1376
হ্য	-10.1376
▁যেখান	-10.1382
▁পা	-10.1382
#	-10.1391
▁ক্তি	-10.1393
▁sp	-10.1405
▁ইউরোপিয়	-10.1423
▁মে	-10.1429
▁None	-10.1449
▁১৫	-10.145
▁gconf	-10.147
েই	-10.1517
সংখ্যা	-10.1532
গুয়া	-10.1533
▁৩০	-10.1534
par	-10.1537
ব্যবস্থা	-10.1542
▁শর্ত	-10.155
▁রাখ	-10.1555
নিষ্ক্রিয়	-10.156
▁আঁক	-10.1572
সম্পন্ন	-10.1575
ব্যাক	-10.1581
অনুপস্থিত	-10.1588
সহায়তা	-10.159
ET	-10.1598
সিমুলেশন	-10.1603
ঘন্টা	-10.1605
স্বচ্ছতা	-10.1606
সেন্ট	-10.1611
হোক	-10.1612
▁নির্ধারণে	-10.1614
▁মিলে	-10.1617
লো	-10.1623
ive	-10.1648
বিঘ্ন	-10.1652
▁সেকেন্ডে	-10.166
It	-10.1666
▁নিয়ে	-10.1699
▁আস	-10.1705
▁রে	-10.1706
সেকেন্ডে	-10.1711
ST	-10.1711
▁In	-10.1734
হীন	-10.1737
▁মানগুলো	-10.1737
স্কো	-10.1744
ষ্ট	-10.1746
(.	-10.1747
ম্প	-10.1754
▁দি	-10.179
▁M	-10.1835
▁প্রত্য	-10.1842
▁ভবিষ্য	-10.1843
▁সীম	-10.1844
াবলী	-10.1845
▁গেল	-10.1846
্যাগ	-10.185
▁পক্ষ	-10.1853
ng	-10.1865
▁প্লেয়ারে	-10.1865
▁অপসার	-10.1876
▁গুরুত্ব	-10.1881
▁bug	-10.1881
▁কোম্পানি	-10.1881
example	-10.1881
োত্তীর্ণ	-10.1881
▁Catalog	-10.1881
▁Spamassas	-10.1881
▁message	-10.1881
▁কার্যকারিতা	-10.1881
▁তর্জনি	-10.1881
▁তাৎক্ষণিক	-10.1881
▁তৎক্ষনা	-10.1881
▁নম্বর	-10.1881
▁নিরীক্ষণ	-10.1881
▁পুনঃনামকরণ	-10.1881
▁বণ্টন	-10.1881
▁স্ট্যান্ডার্ড	-10.1881
▁পরিসংখ্যান	-10.1881
▁পাইথন	-10.1881
▁প্রোফাইল	-10.1881
▁সম্প্রচার	-10.1881
▁হার্ডওয়্যার	-10.1881
vcf	-10.1881
display	-10.1881
▁চুক্তিপত্র	-10.1881
▁শহর	-10.1881
▁লোগো	-10.1881
▁এলিমেন্ট	-10.1881
▁ছুটি	-10.1881
▁জবাব	-10.1881
▁প্রান্তিক	-10.1881
▁growisofs	-10.1881
▁অনুক্রম	-10.1881
▁প্রতিধ্বনি	-10.1881
▁অভিন্নকরণ	-10.1881
▁কার্যক্রম	-10.1881
▁অক্ষরমালা	-10.1881
▁৯০	-10.1881
▁প্রতিলিপি	-10.1882
অ্যালায়েসিং	-10.1882
server	-10.1882
▁প্রতীক	-10.1882
▁GAL	-10.1882
▁উপকারে	-10.1882
▁been	-10.1883
unset	-10.1883
▁নিরবতা	-10.1883
▁সাইজ	-10.1884
▁আনসেট	-10.1884
▁পরিবহন	-10.1884
▁অনিয়মিত	-10.1886
▁বিক্র	-10.1887
▁সন্নিবেশিত	-10.1888
▁লাল	-10.1888
▁পাঠিয়ে	-10.1889
▁দৃশ্যমানতা	-10.1889
▁সুরক্ষা	-10.1889
table	-10.1891
অ্যাডমিনিস্ট্রেট	-10.1893
▁১৬	-10.1895
▁স্ম	-10.1896
▁মেসে	-10.1897
▁প্লেয়ার	-10.1897
ise	-10.1902
জিলা	-10.1902
▁একান্ত	-10.1902
▁ইতিহাস	-10.1905
▁যোগদান	-10.1907
▁মাউন্ট	-10.1908
▁ফ্যাক্স	-10.1908
part	-10.1909
▁অথোরিটি	-10.191
▁প্রজাতন্ত্র	-10.191
▁ইনস্ট্যান্স	-10.191
▁ছাড়াই	-10.191
▁মেনুবার	-10.1923
min	-10.1923
▁ব্যয়	-10.1924
াইলি	-10.1929
The	-10.1929
▁সাক্ষাৎকারে	-10.193
▁প্রমান	-10.1932
▁ক্ষেত্রগুলি	-10.1935
PG	-10.1937
ound	-10.1942
▁বলুন	-10.1951
TNE	-10.1955
▁আবশ্যকীয়	-10.1968
▁সম্ব	-10.1979
▁বুক	-10.1982
এই	-10.1988
eed	-10.1993
▁চিজ	-10.1993
lock	-10.2
▁বিল	-10.2006
▁days	-10.2015
▁কম্পিউটারে	-10.2018
▁কনফিগারেশনে	-10.2028
▁ফেলো	-10.203
জায়	-10.2057
আর	-10.2059
▁যাই	-10.2062
▁events	-10.2065
▁বাক	-10.2106
ure	-10.2107
▁প্রোটোকলে	-10.2116
ড়	-10.2123
মাত্রা	-10.215
▁ডিফল্টরূপে	-10.217
▁পুর	-10.2175
DF	-10.2178
▁অক্ষরে	-10.2179
মেন্ট	-10.2187
ম্	-10.2191
ফ্রি	-10.2195
▁২০০	-10.2198
▁set	-10.2199
ক্ষণ	-10.2202
der	-10.2205
lay	-10.2223
▁আছেন	-10.2233
▁B	-10.224
IP	-10.224
▁বার্নার	-10.2251
"%	-10.2252
▁প্রসঙ্গ	-10.2259
নৈ	-10.2269
▁উপাদানে	-10.228
েড	-10.2332
lit	-10.2332
রোধ	-10.2336
▁টেক্সটে	-10.2352
▁SO	-10.2367
able	-10.2369
▁বাটনের	-10.2385
বারে	-10.2424
সেল	-10.2427
▁স্ব	-10.2445
▁মা	-10.2445
▁সবগুলো	-10.2451
ga	-10.2452
▁পাই	-10.2473
্যাল	-10.2486
om	-10.2507
md	-10.2507
▁সুদ	-10.2517
▁ল	-10.2543
Name	-10.2565
মতি	-10.2566
sin	-10.2598
ক্স	-10.26
▁মন	-10.2604
▁বদল	-10.2606
▁রিকার	-10.2611
▁ডকুমেন্টে	-10.2627
▁পিক্সেল	-10.2636
▁উ	-10.2651
বিন্যাস	-10.2658
▁সমাধানে	-10.2665
োন	-10.2678
স্ক	-10.2695
Card	-10.2699
্রেস	-10.2732
েতু	-10.2765
ৌ	-10.2766
ex	-10.281
বর	-10.282
▁যত	-10.2827
জিস্ট্রি	-10.2849
▁ফে	-10.2855
▁সর	-10.2895
ebca	-10.2895
বক্সে	-10.2914
wor	-10.2927
▁সম্পাদকে	-10.2984
GE	-10.2987
▁এন	-10.2995
▁চালানোর	-10.3018
▁আপ	-10.3025
েন	-10.3066
▁GP	-10.3075
ড়ো	-10.3077
▁নন	-10.3082
সক্রিয়	-10.3097
▁লিঙ্কটি	-10.3104
নুমান	-10.3109
▁প্যানেলে	-10.3126
▁সতর্ক	-10.3133
আরম্ভ	-10.3134
▁li	-10.3141
ary	-10.3156
লোড	-10.3159
লাইনে	-10.3161
নক	-10.3165
ser	-10.3174
Folder	-10.3226
Mail	-10.323
CRL	-10.3246
▁সেশনে	-10.3248
গ্রুপ	-10.3252
VCD	-10.3253
ইনস্টল	-10.3257
▁ছবিগুলো	-10.3258
অঞ্চল	-10.3258
পোস্ট	-10.3264
with	-10.327
▁ইউ	-10.3271
state	-10.3272
▁স্ট	-10.3281
▁কা	-10.3285
▁ঝ	-10.3318
read	-10.3333
▁রি	-10.3347
▁টি	-10.3373
ঝ	-10.3376
▁রিডার	-10.3381
alle	-10.3383
▁অগ্রা	-10.3391
▁একট	-10.3395
▁চালে	-10.3401
▁সম্পদ	-10.3421
▁কন	-10.3435
▁সপ্তাহে	-10.3442
নুযায়ী	-10.3464
বইটি	-10.3475
%%)	-10.35
▁টিক	-10.3516
▁উজ্জ্বল	-10.3521
ভুক্ত	-10.3521
▁পুনরাবৃত্ত	-10.3522
ell	-10.3536
age	-10.3538
tring	-10.3542
তিষ্ঠান	-10.3542
rd	-10.3543
▁চাই	-10.3543
▁বৈশিষ্ট	-10.3543
▁গোপন	-10.3544
▁সেটিং	-10.3544
ুক্তি	-10.3545
▁ইভোল	-10.3546
DisplayName	-10.3548
token	-10.3548
্যুশন	-10.3548
▁vCalendar	-10.3548
▁অভিনন্দন	-10.3548
▁আওয়াজ	-10.3548
▁আহরণ	-10.3548
▁এলোমেলো	-10.3548
▁কর্তৃ	-10.3548
▁কার্যদিবস	-10.3548
▁ক্ষুদ্র	-10.3548
▁দ্বন্দ্ব	-10.3548
▁পরিবর্তনশীল	-10.3548
▁পারম্পরিক	-10.3548
▁বৈশিষ্ঠ্য	-10.3548
▁রুপান্তর	-10.3548
▁সাজাও	-10.3548
▁গুণিতক	-10.3548
▁বৈসাদৃশ্য	-10.3548
▁অনামিকা	-10.3548
▁VoIP	-10.3548
▁অংশগ্রহনকারী	-10.3548
▁হ্যাঁ	-10.3548
verti	-10.3548
▁libburn	-10.3548
ttach	-10.3548
ট্রিবিউ	-10.3548
▁অগ্রগণ্য	-10.3548
▁কম্পোজ	-10.3548
timedata	-10.3548
▁জানুয়ার	-10.3548
▁লম্বা	-10.3548
▁গন্তব্যস্থল	-10.3548
▁TCP	-10.3548
▁ব্যতিক্রম	-10.3548
▁এলাকা	-10.3548
textentry	-10.3548
ইন্ডিয়ানা	-10.3548
▁ডাইজে	-10.3548
▁অন্তর্গত	-10.3548
▁RX	-10.3548
▁মোজিলা	-10.3549
▁নিবন্ধিত	-10.3549
▁Lib	-10.3549
▁৬৪	-10.3549
▁SHA	-10.3549
▁ডকুমেন্টেশন	-10.3549
▁Messages	-10.355
▁আকৃতি	-10.355
▁হিউ	-10.355
▁উল্টানো	-10.355
▁পুরনো	-10.355
GPG	-10.3551
▁সিডি	-10.3552
▁চাপুন	-10.3552
near	-10.3552
▁রচনা	-10.3552
ment	-10.3553
▁ডে	-10.3554
class	-10.3555
page	-10.3556
▁অসম্ভব	-10.3556
▁গঠিত	-10.3557
rbe	-10.3558
▁সাইডবার	-10.3558
ভিল	-10.3558
▁পৌ	-10.3558
▁আব	-10.3561
png	-10.3561
নামিক	-10.3565
▁রেখা	-10.3565
▁ডায়াল	-10.3565
lick	-10.3566
▁করবো	-10.3566
▁করেননি	-10.3567
pop	-10.3567
▁২৩	-10.3568
recur	-10.3568
গ্রাহক	-10.3568
বৃত্তি	-10.3569
থাপি	-10.3569
▁রোলার	-10.3569
▁ঘোরানো	-10.3569
▁`	-10.357
▁একমাত্র	-10.3571
refer	-10.3572
▁তালিকাভুক্ত	-10.3573
▁fa	-10.3574
▁নেয়া	-10.3574
▁উজ্জ্বলতা	-10.3575
▁tableau	-10.3577
স্টেট	-10.3578
▁স্থাপিত	-10.358
▁AisleRiot	-10.3581
▁সেরা	-10.3584
▁কলামে	-10.3586
▁অ্যাপ্লিকেশনে	-10.3589
▁দৃশ্য	-10.3593
▁দুটিই	-10.3594
বেদন	-10.3594
৪৫	-10.3608
▁ব্যাকআপ	-10.361
▁পরিবর্তক	-10.361
email	-10.3611
৯৬	-10.3619
▁সহকার	-10.3622
▁গ্রাফিক	-10.3623
fli	-10.3629
use	-10.3631
▁মিথ্যা	-10.3632
▁Pine	-10.3633
▁উপযুক্ততা	-10.3637
▁ফরমা	-10.3639
▁১২	-10.3644
▁ফ্ল	-10.3644
▁দিবে	-10.3655
কোরীয়	-10.3655
▁দ্রুততা	-10.3657
বাক্স	-10.3657
▁পর্যায়ের	-10.3677
▁mbox	-10.3683
▁ইচ্ছা	-10.3688
য়যোগ্য	-10.3689
▁যাচ্ছেনা	-10.3711
▁থাকেন	-10.3711
াউন্ড	-10.3715
▁নির্ভর	-10.3731
েগুল	-10.3734
▁BCC	-10.3735
zh	-10.3755
▁পশ্চিম	-10.3757
dm	-10.3778
আজকে	-10.3785
▁list	-10.3788
el	-10.3788
▁দিয়েছেন	-10.3803
CN	-10.3806
▁পেইন	-10.3825
▁কালো	-10.3838
ring	-10.3848
মিল	-10.3855
িফ	-10.3857
▁VCD	-10.386
▁সেন্ট	-10.3886
#-#-#-#	-10.3887
▁সারা	-10.3897
▁আড়ালে	-10.3908
ক্যাপস	-10.3917
নিক	-10.3941
▁ট্যাবে	-10.3943
পছন্দকারী	-10.3945
rom	-10.3947
▁৩১	-10.3952
▁ভার্	-10.3956
▁বাইন্ডিং	-10.3962
▁ভূ	-10.3987
আইকন	-10.4018
ab	-10.402
aga	-10.4029
ধিক	-10.4045
▁প্রদানে	-10.4051
তিক	-10.4057
▁ফোল্ডারগুলো	-10.4064
াও	-10.407
bo	-10.4079
ানুসারে	-10.4082
▁কলব্যাক	-10.4103
▁কেন্দ্র	-10.4137
েতন	-10.414
▁সচ	-10.4142
ুম	-10.4142
▁Import	-10.416
▁অংশগ্রহণকারীর	-10.4163
TP	-10.4173
▁নির্বাচনে	-10.4173
ipe	-10.42
গুন	-10.4208
▁ট্রে	-10.4208
▁হা	-10.4218
Sp	-10.4228
▁বর্গক্ষেত্র	-10.423
▁দিনে	-10.4251
ip	-10.4254
mer	-10.4259
জু	-10.4265
▁প্রান্তে	-10.4273
ির্ভূত	-10.4285
রিয়ে	-10.4288
▁চল	-10.4303
Res	-10.4316
ুলুন	-10.4323
▁c	-10.4333
বিশ	-10.4335
মুক্ত	-10.4336
রো	-10.4336
CI	-10.4339
▁x	-10.4346
জ্য	-10.4351
োয়া	-10.4354
ve	-10.4375
toc	-10.442
বৃন্দ	-10.4421
িল	-10.445
▁সাই	-10.4453
স্ট্যান্ট	-10.4455
▁কত	-10.4465
ki	-10.4467
ক্যাটা	-10.4474
is	-10.4503
▁স্কীম	-10.4517
িট	-10.452
সাইফ	-10.4532
▁তথ্যে	-10.4537
▁পাঠে	-10.4537
▁টার্মিনাল	-10.4585
▁মজ	-10.4617
OS	-10.4632
▁st	-10.4633
▁পারি	-10.4714
বিট	-10.4743
▁R	-10.4748
এনক্রিপ্টকৃত	-10.4753
dao	-10.477
▁PI	-10.4785
বিন্যস্ত	-10.4789
macs	-10.4792
ক্ষেপ	-10.4861
▁কোনটি	-10.4871
▁সংযোগে	-10.488
চিত	-10.4883
▁AP	-10.4897
est	-10.4898
পূর্ব	-10.4908
▁লে	-10.4917
▁এম	-10.494
pipe	-10.4955
▁on	-10.4971
রু	-10.4989
মার্ক	-10.499
মুছে	-10.4992
দু	-10.4997
সাথে	-10.503
▁রোস্টারে	-10.5034
erio	-10.5043
▁পরীক্ষার	-10.505
ল্যান্ড	-10.5078
কো	-10.5123
▁অন্যথা	-10.5154
▁গা	-10.5155
কারীর	-10.5157
▁m	-10.5166
বাতিল	-10.5171
প্রেরক	-10.5174
▁সূচক	-10.5181
X	-10.5196
সাধারণ	-10.521
picture	-10.5217
ঠিক	-10.522
no	-10.5222
দিকে	-10.5222
▁ডাটাবেসে	-10.5227
nu	-10.5231
ম্যান	-10.5236
প্রবেশ	-10.5237
বড়	-10.5242
শিরোনাম	-10.5244
কালো	-10.525
ভিউ	-10.5251
চিহ্ন	-10.5254
মিনিট	-10.5256
পূর্বে	-10.5258
User	-10.5259
gconf	-10.526
জুড়ে	-10.5264
উল্টো	-10.5264
HTTP	-10.5265
list	-10.5266
সর্বমোট	-10.5266
স্পেস	-10.5269
পক্ষে	-10.527
মিলিসেকেন্ডে	-10.5271
পশ্চিম	-10.5273
folder	-10.5273
user	-10.528
ch	-10.5285
▁App	-10.5289
▁সম্পর্ক	-10.529
ক্ষ	-10.5292
▁I	-10.5296
sh	-10.53
▁Pa	-10.5308
আই	-10.5315
▁অপ	-10.5315
▁PA	-10.5329
লিক	-10.5356
পাত	-10.538
econd	-10.5381
ড়ে	-10.5397
▁পুরা	-10.5422
ight	-10.5432
▁ডেস্কটপে	-10.5454
AIN	-10.5456
লক	-10.548
ভার	-10.5484
রক্ষিত	-10.5493
▁ওয়েবপেজে	-10.5497
▁মুছ	-10.5497
▁সারাদ	-10.5508
▁)	-10.5515
ray	-10.5519
ps	-10.552
্	-10.5529
fer	-10.5534
▁যথায	-10.5539
ual	-10.5542
FILE	-10.5543
▁বৃ	-10.5543
▁প্লে	-10.5547
▁বিজ্ঞপ্তি	-10.5547
ডাউন	-10.5547
config	-10.5548
▁burn	-10.5548
button	-10.5548
▁Gcalctool	-10.5548
▁NameOfTheUser	-10.5548
▁Pidgin	-10.5548
▁অনাকাঙ্ক্ষিত	-10.5548
▁অভিবাদন	-10.5548
▁আইডেন্টিফায়ার	-10.5548
▁আগামীকাল	-10.5548
▁এক্সেপশন	-10.5548
▁ক্যালকুলেটর	-10.5548
▁চেহারা	-10.5548
▁দুরত্ব	-10.5548
▁নির্ভরশীল	-10.5548
▁প্রত্যাখ্যাত	-10.5548
▁বৈজ্ঞানিক	-10.5548
▁মৃত্যু	-10.5548
▁মেসেজিং	-10.5548
▁স্বতন্ত্র	-10.5548
▁স্যাচুরেশন	-10.5548
▁INBOX	-10.5548
▁জিনিস	-10.5548
▁পংক্তি	-10.5548
▁পরামর্শ	-10.5548
▁প্রাথমিক	-10.5548
▁সুবিধাজনক	-10.5548
descript	-10.5548
▁প্রাকমুদ্রণ	-10.5548
▁মেশিনে	-10.5548
▁অমীমাংসিত	-10.5548
▁কোসাইন	-10.5548
▁সংশোধন	-10.5548
▁bool	-10.5548
▁জিনিষপত্র	-10.5548
▁বোঝা	-10.5548
নকশা	-10.5548
▁গুরুতর	-10.5548
▁হাইপার	-10.5548
▁গুহ্	-10.5548
▁মেমরি	-10.5548
screen	-10.5548
▁উন্মুক্ত	-10.5548
▁ডেমন	-10.5548
স্ত্রী	-10.5548
▁পদবি	-10.5548
▁সংবাদ	-10.5548
ener	-10.5548
dvd	-10.5548
▁বর্ধিতাংশ	-10.5548
▁সরলীকৃত	-10.5548
▁পর্যবেক্ষ	-10.5548
▁বাধ্য	-10.5548
▁মেলানো	-10.5548
▁মার্জিন	-10.5548
্নলিখিত	-10.5548
▁Place	-10.5548
▁স্তরায়ন	-10.5549
▁সমগ্র	-10.5549
▁ডাকছে	-10.5549
▁গ্রীড	-10.5549
▁অদৃশ্য	-10.5549
▁খতম	-10.555
চ্ছিক	-10.555
home	-10.555
▁পেশা	-10.555
▁রবিবার	-10.555
Date	-10.555
▁শনিবার	-10.555
▁নিস্ক্রিয়	-10.555
▁টোকেন	-10.555
▁রচনাকারী	-10.5551
gtk	-10.5551
▁এজেন্ট	-10.5551
▁চলেছেন	-10.5552
▁শিরোনামহীন	-10.5552
any	-10.5553
▁উপনাম	-10.5553
▁পাঠিয়েছেন	-10.5553
ৌগ	-10.5554
▁অবিন্যস্ত	-10.5554
▁ফ্যাক্টরি	-10.5554
গোটা	-10.5556
down	-10.5556
evanagari	-10.5557
XMP	-10.5557
▁উপযোগীতা	-10.5558
▁Ke	-10.5558
▁রুমানিয়	-10.5559
▁সাময়িকী	-10.556
MacRoman	-10.556
bz	-10.5561
END	-10.5561
rgb	-10.5561
zone	-10.5561
ঙ্গা	-10.5561
▁মানচিত্র	-10.5562
▁টাচ	-10.5563
jabber	-10.5563
▁প্রিয়	-10.5566
▁আয়ত	-10.557
▁Pro	-10.557
Qua	-10.5572
have	-10.5574
apps	-10.5574
▁ইউনি	-10.5574
LCD	-10.5574
size	-10.5574
রিসেট	-10.5578
পাঠে	-10.558
▁ইতি	-10.5584
কোন	-10.5587
▁অর্থাৎ	-10.5589
▁জনপ্রিয়	-10.5589
▁বিভাজক	-10.5589
▁account	-10.5589
০০	-10.5592
রিয়াল	-10.5594
▁${	-10.5599
▁পরিসর	-10.5603
▁ইম্পোর্টকারী	-10.5606
▁ফেললে	-10.5609
▁অর্থ	-10.5615
াত্	-10.562
▁খন্ড	-10.5621
স্থলে	-10.5624
নিউ	-10.5625
▁টালি	-10.5635
ত্ত্ব	-10.5639
ন্বয়	-10.5641
▁Q	-10.565
▁মেটাডাটা	-10.5652
▁status	-10.5653
▁Game	-10.5662
▁অনবর	-10.5662
▁read	-10.5681
জ্জ	-10.5683
েট	-10.5685
▁কিউ	-10.5686
▁ব্যবহারকালে	-10.5689
ros	-10.569
not	-10.5693
TH	-10.5693
▁হেল	-10.5701
MacG	-10.5706
vel	-10.5717
▁পাতা	-10.5724
▁সূচী	-10.5725
▁যেহ	-10.5734
▁নীচ	-10.5755
▁evolution	-10.5778
▁Shift	-10.578
▁প্রক্রিয়াকরণে	-10.5789
নজ	-10.5793
তার	-10.5795
▁২০	-10.5801
▁রিডারে	-10.5807
ans	-10.5807
▁str	-10.5816
▁পোকার	-10.5835
বদ্ধ	-10.5839
TO	-10.5843
▁উল্টো	-10.5843
াশি	-10.5846
▁mod	-10.5848
▁বিস্তার	-10.585
▁সেশ	-10.5853
র্ধ্ব	-10.5854
▁সংরক্ষণে	-10.5859
▁CC	-10.5884
ted	-10.5888
▁২য়	-10.591
▁int	-10.591
tip	-10.5921
curr	-10.5929
MA	-10.5934
ার্ন	-10.5964
আলম	-10.5996
রুশ	-10.6027
হা	-10.6027
scape	-10.6028
On	-10.6029
নিজ	-10.6033
মাহে	-10.6033
▁প্রতিনিধির	-10.6036
ocks	-10.6036
▁শর্তা	-10.6052
▁পে	-10.6067
.”	-10.6074
#-#	-10.6093
▁উদাহরণস্বরূপ	-10.6109
me	-10.6115
▁বিহীন	-10.6125
াতে	-10.6165
non	-10.6172
▁day	-10.6183
PS	-10.6194
িষ্ক	-10.6197
ert	-10.6222
▁কোণ	-10.6235
দি	-10.6236
EN	-10.6237
সিঙ্ক	-10.6247
▁up	-10.6273
▁format	-10.6283
▁ধরণে	-10.6297
তম	-10.6299
েশন	-10.6311
ID	-10.6318
▁সর্বা	-10.6345
প্ত	-10.6346
▁তাই	-10.6352
▁চ্যালেঞ্জ	-10.6366
rance	-10.6377
রের	-10.6387
▁Ad	-10.6409
▁ন্যাভিগেটরে	-10.6413
▁উৎপ	-10.6419
▁দ্ব	-10.6428
লাম	-10.6441
tem	-10.645
dat	-10.6456
▁tar	-10.646
ৃত	-10.6472
▁ডায়ালগটি	-10.6481
সারিতে	-10.6483
▁পরিচালন	-10.6491
-#-#-#	-10.6516
▁মিট	-10.6518
▁বাজ	-10.6529
ননি	-10.6531
BD	-10.6536
▁ড্রাইভে	-10.6537
▁DA	-10.6569
▁...)	-10.6576
gra	-10.6584
sco	-10.6599
▁সাঁট	-10.6612
▁W	-10.6642
▁Type	-10.6688
▁ফল	-10.6707
▁গত	-10.6721
সাধারণত	-10.6778
ফার	-10.6793
ংশগ্রহণকারীবৃন্দ	-10.6817
রণ	-10.6818
▁লি	-10.6835
ক্তির	-10.6849
নিয়া	-10.6858
মেন	-10.6868
▁আউটপুটে	-10.6879
লের	-10.6894
ূর্	-10.69
ice	-10.6902
▁শতাংশে	-10.6935
▁গিয়ে	-10.6984
শেষ	-10.6997
্টার	-10.7001
াকে	-10.703
মের	-10.704
▁অনুসূচ	-10.7046
ter	-10.7063
▁অতিক্র	-10.7081
Un	-10.7093
গো	-10.7094
IR	-10.7106
▁ফরম্যাটে	-10.7116
▁Mo	-10.712
▁কমান্ডটি	-10.7127
▁কোর	-10.7134
▁K	-10.7135
াম	-10.7137
▁wi	-10.7148
ian	-10.7151
ষ	-10.7152
▁মেইলার	-10.7167
ta	-10.7184
▁ইম্পোর্টার	-10.7221
▁আটক	-10.7247
gu	-10.7259
নুসারে	-10.728
ছবি	-10.7281
দা	-10.7343
▁:(_	-10.7371
▁মেইলে	-10.7382
▁স্ট্র	-10.7389
ীম	-10.7432
cus	-10.7438
২০০	-10.7444
ব্	-10.7456
ত্রুটি	-10.746
দেশ	-10.7466
জের	-10.7479
CE	-10.7486
▁মেল	-10.7499
OU	-10.7526
ৈত	-10.7538
কম	-10.7543
ie	-10.7545
ভিডিও	-10.7569
বিয়া	-10.7583
প্রমান	-10.7583
ক্যালেন্ডার	-10.7625
ইউক্রেইনিয়	-10.7641
পূর্ণ	-10.7659
টিউন	-10.7662
স্বাক্ষর	-10.7669
es	-10.7677
UI	-10.7682
প্রয়োগ	-10.7692
প্রাকদর্শন	-10.7704
কোড	-10.7708
xml	-10.771
▁জন্যে	-10.7711
প্রস্থ	-10.7712
প্রদেশ	-10.7712
ব্যবহৃত	-10.7724
▁প্রত	-10.7724
স্থানে	-10.7725
▁পোকা	-10.7737
উৎস	-10.7739
তু	-10.7756
Shift	-10.7757
নিম্ন	-10.7759
পূর্বনির্ধারিত	-10.7759
Outlook	-10.776
evolution	-10.776
অফিসে	-10.776
▁tha	-10.7766
▁শীর্ষচরণে	-10.7766
▁প্রক্রিয়াকরণ	-10.7771
BCC	-10.7771
ম্যাপ	-10.7775
সত্য	-10.7779
সপ্তাহ	-10.7782
▁সোয়া	-10.7784
নিয়মিত	-10.7802
তীর	-10.7803
নির্ভর	-10.7806
receiv	-10.7814
No	-10.7819
ine	-10.7837
▁পটভূম	-10.7847
ব্রা	-10.7863
▁নোডে	-10.7865
ignature	-10.7871
াহিত	-10.7875
option	-10.7875
গণ	-10.7879
নিশ্চিত	-10.7902
▁কমান	-10.791
wo	-10.7917
▁সাদ	-10.7925
ia	-10.7964
নেম	-10.7972
িস	-10.7977
▁হারে	-10.7993
older	-10.7994
▁ব্য	-10.7997
▁খান	-10.7998
়	-10.7998
▁ব্যক্ত	-10.8002
CD	-10.8004
▁হিসাব	-10.8004
ক্	-10.8009
সিকিউ	-10.8026
▁ডিকোড	-10.8026
ntry	-10.8028
▁বাটনে	-10.8029
▁জাপান	-10.8031
ator	-10.8034
▁সন্নিবেশ	-10.8035
▁উপযোগী	-10.8035
SE	-10.8035
▁tim	-10.804
Read	-10.8044
▁শুধ	-10.8045
Pu	-10.8046
▁দূর	-10.8047
▁মসৃণ	-10.8047
▁ট্রান্স	-10.8047
▁রেখে	-10.8048
▁স্টাইলশিট	-10.8048
Cancel	-10.8048
Linux	-10.8048
VIDEO	-10.8048
VISCII	-10.8048
View	-10.8048
celandic	-10.8048
color	-10.8048
entries	-10.8048
html	-10.8048
roatian	-10.8048
urkish	-10.8048
urmukhi	-10.8048
উদহারণস্বরুপ	-10.8048
স্ল্যাশ	-10.8048
▁AUTH	-10.8048
▁ETree	-10.8048
▁Libburn	-10.8048
▁Nautilus	-10.8048
▁meeting	-10.8048
▁mkisofs	-10.8048
▁অটোসেভ	-10.8048
▁ইউআরএল	-10.8048
▁ইলিপসিস	-10.8048
▁কানেক্টর	-10.8048
▁ক্যারেক্টার	-10.8048
▁গুণনীয়ক	-10.8048
▁চক্রাকারে	-10.8048
▁জেনারেল	-10.8048
▁ধন্যবাদ	-10.8048
▁নমুনা	-10.8048
▁নরমালাইজ	-10.8048
▁নিঃশব্দ	-10.8048
▁পরিদর্শিত	-10.8048
▁বাঞ্ছনীয়	-10.8048
▁বিনিয়োগ	-10.8048
▁বিন্দু	-10.8048
▁বৈঠক	-10.8048
▁ভাণ্ডার	-10.8048
▁মুলতুবি	-10.8048
▁শীঘ্র	-10.8048
▁সরঞ্জাম	-10.8048
schema	-10.8048
রাষ্ট্র	-10.8048
▁এক্সপ্যান্ডার	-10.8048
▁কর্তৃপক্ষ	-10.8048
▁বোনাস	-10.8048
▁মাইক্রো	-10.8048
বাউন্স	-10.8048
▁RSVP	-10.8048
▁কঠিন	-10.8048
▁কার্যালয়	-10.8048
▁থাম্ব	-10.8048
▁পাসফ্রে	-10.8048
▁ফাকাঁ	-10.8048
▁রোবট	-10.8048
▁সরবরাহকারী	-10.8048
▁সুপারিশ	-10.8048
Screen	-10.8048
ট্রাভে	-10.8048
▁ISDN	-10.8048
▁Unicode	-10.8048
▁codec	-10.8048
▁neighbor	-10.8048
▁চলাচল	-10.8048
▁মার্বেল	-10.8048
▁মিশ্র	-10.8048
ple	-10.8048
▁লোক্যাল	-10.8048
▁অবয়ব	-10.8048
▁অ্যাসিস্ট	-10.8048
▁রেডিও	-10.8048
▁গ্রেডিয়ান	-10.8048
Caret	-10.8048
▁স্বল্প	-10.8048
▁Network	-10.8048
▁মাপসই	-10.8048
▁focus	-10.8048
▁ক্লিপ	-10.8048
▁তথ্যাদি	-10.8048
header	-10.8048
Create	-10.8048
▁ইন্টারেক্ট	-10.8048
rabic	-10.8048
▁দুর্বল	-10.8048
অপরাহ্ণ	-10.8048
▁Inbox	-10.8048
▁লেভেল	-10.8048
▁ট্রান্সকোড	-10.8048
▁bzip	-10.8048
▁প্রাপ্তিস্বীকার	-10.8048
defin	-10.8048
▁Suite	-10.8048
▁পার্টিশ	-10.8048
ইউক্রেনীয়	-10.8048
video	-10.8048
▁filtering	-10.8048
▁আউটবক্স	-10.8048
▁স্মরণ	-10.8048
▁NOT	-10.8048
PEG	-10.8048
▁বনোবো	-10.8048
▁গিনি	-10.8049
▁সঙ্গতি	-10.8049
▁হ্যাশ	-10.8049
File	-10.8049
▁সিমুলে	-10.8049
▁এনভেল	-10.8049
▁মসৃণকরণ	-10.8049
arsi	-10.8049
▁বছর	-10.8049
▁ক্ষতি	-10.8049
▁কার্যসপ্তাহ	-10.8049
▁বাজাও	-10.8049
▁সর্তক	-10.8049
▁Doe	-10.8049
▁বহির্গামী	-10.8049
▁পরিদর্শন	-10.8049
▁যথেষ্	-10.805
▁চিল্ড	-10.805
BSD	-10.805
▁লক্ষ্য	-10.805
▁প্রতিপক্ষ	-10.805
▁দৈ	-10.805
view	-10.805
▁কীওয়ার্ড	-10.8051
▁পরিমাপ	-10.8051
▁বৃষ্টি	-10.8051
JIS	-10.8051
▁পায়নি	-10.8051
কিপার	-10.8051
▁হাইলাইটকরণ	-10.8051
change	-10.8052
start	-10.8052
থাপন	-10.8052
Ukrainian	-10.8052
▁ফাংশন	-10.8052
▁Dj	-10.8052
▁আঁকুন	-10.8053
▁১২৫	-10.8053
ro	-10.8053
▁গুজরাটি	-10.8053
খিত	-10.8053
▁আনলোড	-10.8053
কনফারেন্স	-10.8053
▁বিফল	-10.8053
▁বিকল	-10.8054
alarm	-10.8054
▁পারছে	-10.8054
▁UIN	-10.8055
▁উপযোগিতা	-10.8055
▁টোন	-10.8055
▁লিখেছেন	-10.8055
rge	-10.8056
ppen	-10.8056
▁গেট	-10.8056
▁চাচ্ছেন	-10.8057
Time	-10.8058
▁লাইব্রেরি	-10.8058
▁গেছ	-10.8059
Authentication	-10.8059
▁অনির্ধারিত	-10.806
▁অনুসরণকারী	-10.806
▁ইঞ্চি	-10.806
▁ফাঁকাস্থান	-10.8062
▁পাবেন	-10.8063
Use	-10.8063
মিটারে	-10.8064
▁সাউন্ড	-10.8064
▁MDI	-10.8064
▁MH	-10.8066
▁পুনর্ব	-10.8067
▁তৈরিকারক	-10.8068
att	-10.8068
Area	-10.8069
▁ডিকোডার	-10.807
arent	-10.8071
খু	-10.8071
ache	-10.8071
MacC	-10.8073
▁অ্যালাইন	-10.8074
স্কোর	-10.8074
▁মধ্যর্ব	-10.8076
Sync	-10.8076
odifie	-10.8077
▁আলো	-10.8077
gb	-10.8078
▁divisions	-10.8078
foo	-10.8081
▁দু	-10.8083
▁ডেমে	-10.8085
▁রাখো	-10.8085
▁আফ	-10.8085
▁বরাদ্দকৃত	-10.8087
▁ব্যবহারকারীনাম	-10.8088
▁বিষয়ক	-10.8091
▁এরপর	-10.8091
▁ইন্সপেক্টর	-10.8093
বার্ড	-10.8094
▁স্বচ্ছ	-10.8094
ত্তি	-10.8095
▁এডিটর	-10.8096
▁সুবিধা	-10.8096
৫৯	-10.8097
▁Alt	-10.8101
▁গভীরতা	-10.8102
ime	-10.8108
▁ক্রোম	-10.8111
tch	-10.8125
▁শত	-10.8126
▁কাটা	-10.8127
▁নামবিহীন	-10.8135
্রে	-10.8139
▁চেইন	-10.814
▁[-	-10.814
▁ঘুম	-10.8141
▁পরিবর্তি	-10.8142
এক্সপ্রেস	-10.8146
Thi	-10.8154
▁আসে	-10.8155
dim	-10.8156
bb	-10.8156
cy	-10.8161
▁অনুসূচি	-10.8163
▁বাইট	-10.8167
▁মুদ্রণে	-10.8167
my	-10.817
▁জিট	-10.8171
se	-10.8174
▁বিনা	-10.8176
▁বন্ধু	-10.8179
▁ভিত	-10.8183
▁PC	-10.8183
▁সনাতন	-10.8183
rganizer	-10.8184
▁খেলাগুলি	-10.8187
▁registered	-10.8187
েনি	-10.8197
HO	-10.8199
▁পাস	-10.8199
mh	-10.8209
▁বৈশিষ্ট্যগুলি	-10.8222
ড্রপ	-10.8227
াশ	-10.8231
▁কমান্ডে	-10.8231
▁পি	-10.8232
Id	-10.824
▁dr	-10.8247
▁গেছেন	-10.825
tw	-10.8258
্পার	-10.8259
▁error	-10.8268
▁Aisleriot	-10.8269
ujarati	-10.8275
▁US	-10.8282
OM	-10.8287
পাশে	-10.8288
কেটে	-10.8292
▁১ম	-10.8293
াসা	-10.8294
িষ্টা	-10.8297
▁ডিক	-10.8297
▁রাখবে	-10.8298
▁বহির	-10.8301
MD	-10.8311
CC	-10.8313
▁এনকোডার	-10.8319
▁আরেক	-10.8328
▁নেম	-10.8328
িয়ান	-10.833
▁সমত	-10.8331
োনিয়া	-10.8348
নগুলি	-10.8359
ন্য	-10.8364
▁ব্যবস্থাপকে	-10.8377
সাধারন	-10.8377
▁কোরো	-10.8378
▁বহিস্	-10.8386
টপ	-10.8398
PT	-10.8416
▁ক্লো	-10.8423
পাল	-10.8425
sec	-10.8425
কম্প	-10.8444
▁User	-10.8451
folders	-10.8454
IG	-10.846
TE	-10.8468
▁ফের	-10.8469
▁স্টক	-10.8475
▁বরা	-10.8496
▁dir	-10.8501
▁ডাক	-10.8515
="	-10.8519
'%	-10.852
▁ms	-10.8528
▁:	-10.8531
স্বয়ংক্রিয়	-10.8532
▁h	-10.8545
▁বিঘ্ন	-10.8545
▁পেজে	-10.8546
পেক্ষা	-10.8555
▁ক্ষেত্রেই	-10.8575
▁ট্র	-10.8599
TA	-10.8611
▁IP	-10.8625
▁ব্যর্থতা	-10.8625
▁প্যা	-10.8635
যদি	-10.8662
alk	-10.8663
স্তু	-10.8675
▁বিষয়ের	-10.8682
▁অনুকরণে	-10.8691
▁অ্যালার্মে	-10.8697
▁পাশে	-10.87
্রি	-10.8715
ল্ড	-10.8725
▁অসং	-10.8737
ite	-10.8746
▁রোস্টার	-10.8747
ende	-10.8747
BE	-10.8754
Templ	-10.8771
▁৪০	-10.8784
ication	-10.8785
OR	-10.8789
ুদ্ধ	-10.8803
হবে	-10.8803
▁৩২	-10.8809
▁বুকমার্কটি	-10.8813
hul	-10.8828
▁জে	-10.8842
▁ঝু	-10.8843
বেল	-10.8869
গে	-10.8879
▁ছাপা	-10.888
ot	-10.8897
পোলি	-10.8905
▁সাইটে	-10.8906
lzo	-10.8909
▁স্	-10.8911
▁ঘুর	-10.8912
Ex	-10.8925
ack	-10.893
▁ইভেন্টে	-10.8936
ারল্যান্ড	-10.8951
▁স্ক্রীন	-10.8958
▁উদ্	-10.8963
▁flo	-10.8974
র্গ	-10.8975
▁al	-10.9002
ভেট	-10.9004
▁নোম	-10.9015
▁কো	-10.9015
ামী	-10.9021
▁পরিব	-10.9022
▁শি	-10.9029
▁menu	-10.9037
di	-10.9039
ানা	-10.904
টানো	-10.9047
▁get	-10.9049
vie	-10.9066
ইপ	-10.9115
মাস	-10.9119
al	-10.9121
UR	-10.9138
র্থ	-10.9157
▁ক্রোন	-10.9159
▁২১	-10.9172
ub	-10.9182
েনিয়া	-10.9185
উরু	-10.9194
▁j	-10.9201
ze	-10.9238
reek	-10.9238
ল্লা	-10.927
▁১১	-10.9293
ধা	-10.9298
▁ভি	-10.9303
প্রতি	-10.9312
et	-10.9329
লুকা	-10.9333
▁রেজিস্ট	-10.9341
ট্রি	-10.9376
▁স্লট	-10.9377
পাশ	-10.938
▁বী	-10.9393
▁ভেতর	-10.9407
▁স্বীক	-10.941
ঙ্ক	-10.9421
zip	-10.9425
▁টার্মিনালে	-10.9434
ূ	-10.9435
▁কাগজে	-10.9445
চারটি	-10.9459
▁tra	-10.9471
▁জা	-10.948
াদা	-10.9494
▁প্রমাণে	-10.9496
▁উদ	-10.9502
বার্তা	-10.9552
▁VC	-10.958
তী	-10.958
▁নে	-10.9593
চা	-10.9594
▁ওয়েবে	-10.9596
aw	-10.9633
▁চে	-10.9663
▁গ্রুপে	-10.9669
জন্য	-10.9709
cs	-10.9732
▁সংগ্রহস্থল	-10.9749
স্বীকার	-10.9755
▁ভলিউমে	-10.9759
▁ক্রমে	-10.9772
yrillic	-10.9778
▁অ্যাক	-10.9814
▁পৃষ্ঠাটি	-10.9824
▁চেকব	-10.9834
গাল	-10.988
োর	-10.9899
gin	-10.9938
▁বহি	-10.9962
কচ	-10.9971
ড়া	-10.9972
বার্	-10.9975
stdout	-10.9997
পা	-11.0002
NT	-11.0007
হী	-11.003
ডা	-11.003
ry	-11.0033
▁Cdr	-11.0035
▁প্রতিস্থাপ	-11.0039
ডো	-11.0041
ba	-11.0057
লট	-11.0061
▁নোটি	-11.0089
go	-11.01
▁It	-11.0118
তীত	-11.014
ike	-11.0151
▁মাসি	-11.0154
হার	-11.0179
হো	-11.018
Dis	-11.018
র্	-11.0214
ভি	-11.0228
ডাকা	-11.0229
রুম	-11.0239
od	-11.024
ফের	-11.0264
াত	-11.0273
as	-11.0278
▁iCal	-11.0344
▁আর্মেনিয়	-11.0368
নতুন	-11.0376
▁প্রোগ্রামে	-11.038
pen	-11.0387
প্রেস	-11.041
পূর্	-11.0414
tom	-11.042
▁এসে	-11.0421
▁ডা	-11.0422
mi	-11.0425
নোম	-11.0426
▁অধিব	-11.0454
▁অবির	-11.0462
র্থে	-11.0468
ope	-11.0474
স্থাপন	-11.0487
onnect	-11.0499
মত	-11.052
মো	-11.0522
nder	-11.054
সন্ধান	-11.0543
ন্ড	-11.0552
রুণ	-11.0565
টার	-11.0581
িক্ষণ	-11.0583
▁স্তূপে	-11.0608
পাঠ	-11.0609
▁ধার	-11.0626
▁পালা	-11.0633
বর্তমান	-11.0642
িগন	-11.0671
▁ক্যাশ	-11.068
পাসওয়ার্ড	-11.0687
ঠিকানা	-11.0692
▁ক্রো	-11.0694
▁অক্ষ	-11.0707
লু	-11.0716
ফাইল	-11.0718
ল্টা	-11.0732
ক্যান	-11.0736
xe	-11.0736
ুয়েল	-11.0796
▁ক্যা	-11.0797
▁সমস্য	-11.0823
▁গায়	-11.0841
প্রাপ্ত	-11.0849
ধ	-11.0859
অপশন	-11.0863
মেইলে	-11.0865
Priva	-11.087
সো	-11.0879
lev	-11.0888
ট্টা	-11.0893
▁প্রত্যুত্ত	-11.0895
ক্যা	-11.0902
▁window	-11.0905
--	-11.0909
ম্যা	-11.0919
▁অসম	-11.0921
RG	-11.0923
সমূহে	-11.0926
আকার	-11.0928
▁বিস্ত	-11.093
অডিও	-11.0934
জান	-11.0948
গুল	-11.0965
ক্লিক	-11.0971
বিষয়	-11.0971
ডাটা	-11.0976
লুপ	-11.098
সম্পূর্ণ	-11.0985
▁we	-11.0989
সকল	-11.0998
ইজ	-11.1006
অফ	-11.1013
নির্বাচক	-11.1022
াকা	-11.1029
ুলেট	-11.1033
ফ্ল্যাগ	-11.1034
URI	-11.1036
আইটেম	-11.1046
ইউরোপ	-11.1047
পরীক্ষণ	-11.1048
UTC	-11.1057
URL	-11.1059
প্রমাণ	-11.1063
লিঙ্ক	-11.1063
অনলাইন	-11.1064
iver	-11.1072
▁y	-11.1074
▁ইচ্ছ	-11.1081
ভা	-11.1081
Aisleriot	-11.1081
পূর্বাবস্থা	-11.1082
error	-11.1083
Yahoo	-11.1085
▁b	-11.1092
কার্য	-11.1094
পড়ুন	-11.1095
events	-11.1095
স্লাইড	-11.1096
Devhelp	-11.1096
পাঁচ	-11.1097
mbox	-11.1098
আমি	-11.1099
সময়কাল	-11.1101
পিক্সেল	-11.1104
Google	-11.1108
নজা	-11.1109
বিশ্বস্ত	-11.1119
PGP	-11.112
বন্ট	-11.1134
স্টার	-11.1144
ার্ড	-11.119
রূপ	-11.1193
কার্ড	-11.1193
▁event	-11.1203
জুটি	-11.1203
▁বার্	-11.1214
সীমা	-11.1214
▁ভাষ	-11.1225
▁বর্তমানটি	-11.1229
।(	-11.1238
▁ক্ল	-11.1251
hoo	-11.1264
বিলম্বে	-11.1267
ডাই	-11.128
▁অন্তর্	-11.1282
▁চালা	-11.1295
▁Th	-11.1296
টু	-11.1327
ব্য	-11.1327
ুঁটি	-11.1329
▁নির্ধার	-11.1337
SCII	-11.1342
tal	-11.1349
রুদ্ধ	-11.1352
▁অফিস	-11.1353
wea	-11.1354
▁পর্যায়	-11.1356
▁ম্যানেজ	-11.136
▁শীর্ষ	-11.1363
ইয়ের	-11.1366
সফট	-11.1367
▁সংস্থা	-11.1368
zon	-11.1369
াদ	-11.137
▁ফ্যাক্টর	-11.137
▁Tru	-11.1372
ভ্যন্তরী	-11.1373
ফারেন্স	-11.1373
▁চীন	-11.1374
ফোল্ডারে	-11.1374
বর্তন	-11.1375
Message	-11.1376
স্ক্রিয়	-11.1377
ঙ্গো	-11.1377
▁সাপ্তাহ	-11.1378
▁বিশ্ব	-11.1379
ccerciser	-11.1379
রবতা	-11.1379
▁আমন্ত্র	-11.138
▁মেঘ	-11.138
▁bas	-11.138
▁বর্ধিত	-11.138
ূল্য	-11.138
▁subdir	-11.1381
▁বাৎসরিক	-11.1381
Format	-11.1381
Klondike	-11.1381
Location	-11.1381
MERCHANTABILITY	-11.1381
OfTheMeeting	-11.1381
Organi	-11.1381
ইয়াকু	-11.1381
ফ্রান্স	-11.1381
▁Calendar	-11.1381
▁TRUE	-11.1381
▁address	-11.1381
▁অটোমেশন	-11.1381
▁অদলবদল	-11.1381
▁অনুভুমিক	-11.1381
▁আংশিক	-11.1381
▁আবির্ভাব	-11.1381
▁ইয়াগনো	-11.1381
▁ক্ষতিগ্রস্ত	-11.1381
▁গ্রেডিয়েন্ট	-11.1381
▁গ্র্যাডিয়েন্ট	-11.1381
▁ড্রুইডে	-11.1381
▁তাৎক্ষনিক	-11.1381
▁ধারাবাহিক	-11.1381
▁নর্ডিক	-11.1381
▁নির্ণায়ক	-11.1381
▁নোঙ্গর	-11.1381
▁পাকদর্শন	-11.1381
▁পার্থক্য	-11.1381
▁প্রতিযোগিতা	-11.1381
▁বহুপৃষ্ঠা	-11.1381
▁বৃদ্ধাঙ্গুল	-11.1381
▁বৈশাদৃশ্য	-11.1381
▁ভেরিয়েবলে	-11.1381
▁মেথড	-11.1381
▁শূন্য	-11.1381
▁সতর্কবানী	-11.1381
▁স্ক্রোলিং	-11.1381
▁স্বাচ্ছন্দ্যকরণ	-11.1381
▁genisoimage	-11.1381
▁গুরুমুখি	-11.1381
▁দৃষ্টান্ত	-11.1381
▁বৃত্তাকার	-11.1381
Spider	-11.1381
errno	-11.1381
impli	-11.1381
▁COVER	-11.1381
▁অন্তর্নিহ	-11.1381
▁অ্যাপলেট	-11.1381
▁গৌনিক	-11.1381
▁ট্যানজেন্ট	-11.1381
▁বর্গমূল	-11.1381
▁বাইনারি	-11.1381
▁বাগাড়ম্বর	-11.1381
▁লোকেইল	-11.1381
INFO	-11.1381
টুকু	-11.1381
▁NULL	-11.1381
▁UDP	-11.1381
▁চক্রবৃদ্ধি	-11.1381
▁ব্রাজিল	-11.1381
▁মাল্টিমিডিয়া	-11.1381
HKSCS	-11.1381
▁বিধ্বস্ত	-11.1381
▁সূত্র	-11.1381
▁PNG	-11.1381
▁বিলোপন	-11.1381
▁হিন্দি	-11.1381
▁ট্রাস্ট	-11.1381
NAME	-11.1381
LIST	-11.1381
লার্ম	-11.1381
▁পটভ	-11.1381
▁স্টার্লিং	-11.1381
▁ইংরেজ	-11.1381
৬২৫০১	-11.1381
▁বিনামূল্য	-11.1381
▁NFS	-11.1381
rpc	-11.1381
Important	-11.1381
▁টাস্ক	-11.1381
▁রেখেছিলেন	-11.1381
▁backend	-11.1381
▁Out	-11.1381
▁স্প্যাম	-11.1381
Restart	-11.1381
▁প্রশ্ন	-11.1381
▁ধারণক্ষমতা	-11.1381
hori	-11.1381
▁বিপর্যস্ত	-11.1381
▁প্রজ্ঞা	-11.1381
▁ভিজুয়াল	-11.1381
▁ফার্সি	-11.1381
▁হচ্ছিল	-11.1381
obots	-11.1381
phone	-11.1382
▁সেলটিক	-11.1382
Org	-11.1382
▁এনভায়	-11.1382
ফিক্স	-11.1382
▁কেন্দ্রস্থিত	-11.1382
▁Pause	-11.1382
থান্ডার	-11.1382
▁আপেক্ষিক	-11.1382
▁ডামি	-11.1382
▁পিছ	-11.1382
RPC	-11.1382
▁জাভা	-11.1382
▁হেক্স	-11.1382
▁gdb	-11.1382
▁ক্লাসিক	-11.1382
ন্ত্র	-11.1382
▁শাট	-11.1382
▁হাজার	-11.1382
▁সাবপিক্সেল	-11.1382
স্কেপ	-11.1382
▁বিদ্যাম	-11.1382
▁Organizer	-11.1382
▁সাবডিরেক্টরি	-11.1382
▁দিকবিন্যাস	-11.1382
টোঙ্গা	-11.1382
Year	-11.1382
▁ফ্লেকে	-11.1382
▁রঙীন	-11.1382
▁নিম্নরেখাঙ্ক	-11.1383
▁প্রিসেট	-11.1383
addressbook	-11.1383
▁মিথ	-11.1383
rev	-11.1383
▁পর্যায়কাল	-11.1383
▁Net	-11.1383
niversa	-11.1383
▁Accerciser	-11.1383
▁ব্যান্ডউই	-11.1383
▁আন্ডার	-11.1383
Hebrew	-11.1383
▁স্টাইল	-11.1383
▁বিছিন্ন	-11.1383
▁বল্টিক	-11.1383
label	-11.1384
৩৬	-11.1384
▁বুধবার	-11.1384
▁জরুর	-11.1384
▁প্রান্তিককরণ	-11.1384
Four	-11.1384
▁পাচ্ছে	-11.1384
▁হোমপেজ	-11.1384
▁স্কিম	-11.1384
▁মালিকানা	-11.1384
▁আচরণ	-11.1385
▁মাইগ্রেশন	-11.1385
▁নিচু	-11.1385
▁এথন	-11.1386
▁শনি	-11.1386
্রাম	-11.1387
▁Ber	-11.1387
Xnest	-11.1387
▁মূলশব্দ	-11.1387
▁পারছেনা	-11.1387
▁GUI	-11.1388
▁চাইলে	-11.1388
KID	-11.1389
ন্তু	-11.1389
▁টাইল	-11.1389
▁বিঅপশন	-11.1389
▁IOR	-11.139
▁ইচ্ছাকৃত	-11.139
regi	-11.139
▁ট্রী	-11.1391
▁ঘটেছে	-11.1391
▁গুণ	-11.1391
RAM	-11.1392
▁no	-11.1392
▁GPL	-11.1392
▁sound	-11.1392
▁নিবন্ধনকারী	-11.1393
over	-11.1393
▁দিব	-11.1394
▁চলবে	-11.1395
▁সফটওয়	-11.1395
গৌ	-11.1396
ync	-11.1396
▁কীরিং	-11.1397
XT	-11.1398
▁২৯	-11.14
Fort	-11.1401
▁সত্যতা	-11.1401
রেখাঙ্ক	-11.1402
amil	-11.1402
▁গ্র্যা	-11.1404
lan	-11.1405
ঠিত	-11.1406
rase	-11.1406
▁১৩	-11.1408
▁#%	-11.1408
▁ক্রমিক	-11.1409
entry	-11.1409
win	-11.141
▁ভাল	-11.1411
▁১৪	-11.1413
▁২২	-11.1413
▁VI	-11.1415
▁রবি	-11.1415
▁লিখছেন	-11.1415
▁সেগুলি	-11.1416
▁সাধ	-11.1416
▁ফর্ক	-11.1416
পাগো	-11.1419
num	-11.1419
▁পরিত্যা	-11.1419
▁ব্ল	-11.1419
ASCII	-11.142
Sec	-11.1421
▁রেন্ডার	-11.1422
▁অপটিক	-11.1423
চনা	-11.1429
রোজ	-11.1429
▁দ্বি	-11.1432
▁অংশবিশেষ	-11.1434
▁বিরত	-11.1435
pid	-11.1435
box	-11.1435
mov	-11.1444
▁অ্যাড	-11.1444
▁রাত	-11.1447
▁পরিচয়কারী	-11.1448
▁সনাক্তকারী	-11.1448
াটাসবার	-11.145
RDF	-11.1452
▁শ্রী	-11.1454
▁দ্বীপ	-11.1454
▁শিল্পী	-11.1456
▁base	-11.1456
▁মেগাবাইট	-11.1457
▁ট্রিগার	-11.1457
▁comp	-11.1457
Fi	-11.1458
্যমান	-11.1458
ক্রা	-11.1458
▁বামদিকে	-11.1458
▁পুন	-11.1459
▁নবী	-11.1463
▁জানান	-11.1466
বুল	-11.1466
▁আরকাইভ	-11.1469
ph	-11.1474
leon	-11.1475
▁প্রত্যাখ	-11.148
▁আইটেমগুলো	-11.1488
▁স্লাইডার	-11.1489
And	-11.149
Start	-11.1491
স্পষ্ট	-11.1493
▁প্রথমবার	-11.1493
lut	-11.1493
োলেট	-11.1495
ছা	-11.1496
rr	-11.1498
anc	-11.1504
▁সর্বো	-11.1505
▁ত্রুটিযুক্ত	-11.1508
ence	-11.1511
▁ঝলক	-11.1516
▁St	-11.1525
▁২৬	-11.153
ocu	-11.1541
শিয়	-11.1543
▁গ্যার	-11.155
▁উল্টা	-11.155
ত্র	-11.1552
bl	-11.1556
ন্ট	-11.1557
▁চলাকালে	-11.1558
ন্ডা	-11.1561
▁অ্যানিমেট	-11.1562
▁বাহির	-11.157
▁কলগুলি	-11.1571
▁DSL	-11.1581
কেয়া	-11.1582
!!	-11.1586
▁পদ	-11.1588
▁সম্পাদনে	-11.1592
TW	-11.1597
adi	-11.1604
▁টু	-11.1604
▁সোম	-11.1618
নিয়াম	-11.1622
▁২৫	-11.1626
▁EX	-11.1627
CK	-11.1629
lassi	-11.1629
▁খেলাগুলো	-11.163
▁জুন	-11.1633
▁গোপনীয়তা	-11.1636
▁প্রস	-11.1644
▁বিশ্বস্ত	-11.1651
মন	-11.1655
▁AT	-11.1658
▁৫০	-11.1668
fe	-11.167
▁ICS	-11.1671
own	-11.1671
পেক্ষ	-11.1672
AP	-11.1673
▁এলি	-11.1676
ডাবল	-11.1678
ইস	-11.1683
Sign	-11.1692
বু	-11.1701
গণ্য	-11.1704
ছিলেন	-11.1706
▁পাবে	-11.1719
াগত	-11.1722
lue	-11.1726
rea	-11.1745
ন্দ	-11.1748
▁ব্রি	-11.175
ssw	-11.1757
▁GD	-11.1758
িবর্ধন	-11.1758
Fr	-11.1776
▁ছবিসমূহ	-11.178
")	-11.1781
te	-11.1787
▁UI	-11.1789
▁সাবফোল্ডার	-11.1811
▁ছাঁ	-11.1814
uns	-11.1833
▁পায়	-11.1833
▁পারবেনা	-11.1839
▁OR	-11.1848
▁নিউ	-11.1849
▁ওয়াই	-11.185
জল	-11.1851
্যাক	-11.1857
ভিয়া	-11.1861
lity	-11.1868
রাজ্য	-11.1875
▁দাবা	-11.1875
▁প্রদেশ	-11.1883
nc	-11.1885
▁জর্জিয়া	-11.1892
oe	-11.1902
ree	-11.1907
rivate	-11.1919
করুন	-11.1922
▁অগ্র	-11.1925
রুমে	-11.1928
▁e	-11.1931
মন্ট	-11.1966
Ma	-11.1967
TC	-11.1971
করণে	-11.1975
▁বিজ্ঞপ্তিস্থলে	-11.1987
▁No	-11.2019
ation	-11.2045
ক্সটি	-11.2054
▁CRL	-11.2072
ব্র	-11.2087
▁সৃষ্ট	-11.2096
▁হবেনা	-11.2099
▁lock	-11.2111
▁ডিভাইসে	-11.2111
ুপ	-11.2119
RGB	-11.2123
▁সংগঠ	-11.2131
▁বিবরণে	-11.2133
▁Folder	-11.2139
▁গে	-11.2146
াকাও	-11.2146
site	-11.2155
▁Sm	-11.2178
লাইট	-11.2183
▁items	-11.2205
▁দশম	-11.2206
চি	-11.2209
িধি	-11.2222
িদ	-11.2237
▁প্যারামিটারের	-11.2264
▁৯	-11.2266
id	-11.2272
▁প্রদর্শনকারী	-11.2273
▁নী	-11.2279
ep	-11.2283
▁গ্রহণে	-11.2284
পূর	-11.2296
▁কার্যকাল	-11.2302
▁ফাই	-11.2302
াণি	-11.2303
ঁকি	-11.2324
▁ইনবক্সে	-11.234
▁d	-11.2349
চ্ছে	-11.2365
to	-11.2366
৫০	-11.24
▁বোর্ড	-11.2404
ench	-11.244
▁ভাষাগুলো	-11.2441
্যাক্স	-11.2444
্তীর	-11.2451
▁Acce	-11.2457
রিক্	-11.2467
হুয়া	-11.2496
্রীম	-11.2511
▁প্রত্যুত্তরে	-11.2523
▁iCalend	-11.2535
ুহ	-11.2536
ection	-11.255
ley	-11.2554
▁NA	-11.2569
য়ার	-11.2574
▁lz	-11.2575
CHE	-11.2587
ুনাফ	-11.2595
ge	-11.2605
াওয়া	-11.2606
▁Dec	-11.2614
ভূ	-11.2616
▁চ্যানেলে	-11.2623
▁dis	-11.2642
ুসিয়া	-11.2642
▁চ্যাটে	-11.2666
টস্ক	-11.2679
য়েন	-11.2683
Bu	-11.2694
hit	-11.27
ort	-11.2702
▁ম্যাক	-11.2704
▁nl	-11.2717
AB	-11.2718
সিস্টেমে	-11.2719
▁l	-11.273
ost	-11.2737
-#	-11.2745
বোর্ডে	-11.2746
eadcd	-11.2782
তোমা	-11.2784
lace	-11.2784
gr	-11.279
ker	-11.2793
ফে	-11.2797
েকে	-11.2807
▁me	-11.284
▁লগফাইল	-11.284
▁ব্লকে	-11.2846
▁ডায়	-11.2851
কাঙ্	-11.2854
loa	-11.2856
▁পূর্বাহ্	-11.2864
▁ফোল্ডা	-11.2865
▁প্রজ্ঞাপনে	-11.2879
মে	-11.288
হিত	-11.2887
▁FRO	-11.2889
drdao	-11.293
▁সম্ম	-11.2937
াগাদা	-11.2941
আলাদাভাবে	-11.2941
▁গুটি	-11.2944
▁number	-11.2963
nset	-11.2971
nome	-11.3002
ুয়া	-11.3002
ারেশন	-11.3005
্ট	-11.3044
ols	-11.3059
▁En	-11.307
ধরণ	-11.3083
▁ধরনে	-11.3089
▁যাচ্ছেন	-11.3125
সান	-11.3129
ণের	-11.3134
ase	-11.3182
AN	-11.3188
▁Gn	-11.3209
cu	-11.3226
পেজটি	-11.3228
onobo	-11.3248
bi	-11.3272
▁সরা	-11.3272
▁পাথে	-11.3285
Cyrillic	-11.3287
সঙ্গে	-11.331
oh	-11.3347
েয়ার	-11.3349
ck	-11.3356
▁রঙ	-11.3361
▁hou	-11.3373
পর	-11.3383
dif	-11.339
RC	-11.3399
সন	-11.3401
▁cs	-11.3421
TS	-11.344
▁বহ	-11.3447
িয়াস	-11.3487
্মুখী	-11.3487
▁স্তরে	-11.3505
tle	-11.3519
▁পরীক্ষণে	-11.3592
rash	-11.3606
▁মার	-11.3613
লিস্ট	-11.3642
▁সেলফ	-11.3656
Mon	-11.3668
াইন	-11.3714
UL	-11.3717
েছেন	-11.3725
েসব	-11.3734
Jo	-11.3737
লিং	-11.3768
▁p	-11.3809
MB	-11.3809
ওয়া	-11.3822
ঁ	-11.3848
▁অনুসূচীগুলো	-11.3878
▁উদ্দ	-11.388
েন্ট	-11.3895
▁ফ্র	-11.3904
উড	-11.4002
ধি	-11.4014
চার	-11.4025
স্	-11.4025
রও	-11.4046
che	-11.4049
ক্ষা	-11.405
▁আর্গুমেন্টে	-11.4063
পু	-11.4074
▁চু	-11.4078
▁উত্তরে	-11.4109
vers	-11.411
সাও	-11.4118
মূলত	-11.4124
nlink	-11.4141
সাউ	-11.4167
HA	-11.4172
emp	-11.4179
▁বারে	-11.418
Web	-11.4214
US	-11.4218
▁উন	-11.4222
বর্তিত	-11.4225
ুট	-11.429
SS	-11.4308
▁অক	-11.4331
▁Gno	-11.4339
ne	-11.4343
ROM	-11.4347
ান্টি	-11.44
▁ব্যক্তির	-11.4404
dge	-11.4409
ভিয়ে	-11.4427
▁লগফাইলে	-11.443
▁উন্নতি	-11.4432
ece	-11.4459
▁অা	-11.448
সিও	-11.4485
▁So	-11.4489
▁নির্	-11.4498
oll	-11.4518
সম্মত	-11.4531
▁এস	-11.4532
েটর	-11.4578
▁প্রান্ত	-11.4596
ুইস	-11.4597
▁কুয়	-11.4621
ill	-11.4637
ode	-11.4661
▁পাসওয়ার্ডে	-11.4689
াধিকার	-11.4705
েরিয়া	-11.4706
ul	-11.4708
বাই	-11.4712
িনো	-11.472
টো	-11.4723
AL	-11.4724
থিম	-11.4764
তিক্রম	-11.479
ভাবনা	-11.4805
▁মেন	-11.4811
াক	-11.4815
nly	-11.4823
eb	-11.4856
une	-11.4859
মুখ	-11.4878
▁পরিবর্ত	-11.4895
Ten	-11.4912
een	-11.4926
▁ঝলকান	-11.4927
▁রাখে	-11.4932
ম্বো	-11.4946
Pla	-11.4947
thi	-11.4971
Of	-11.4975
..	-11.4983
ুপি	-11.4998
▁ফা	-11.5003
▁উইজ	-11.5015
▁ম্যা	-11.5026
থি	-11.5028
ূল	-11.5045
▁অনুকরণ	-11.5069
িউট	-11.5126
পার	-11.5135
ender	-11.5135
্থ	-11.5138
্টা	-11.5146
মি	-11.515
্যাস	-11.5157
ালি	-11.5165
pre	-11.517
র্স	-11.5185
▁জানিয়ে	-11.5191
তীয়	-11.5193
কারীদের	-11.5238
র্যান্ড	-11.524
▁বৃত্ত	-11.5246
ll	-11.5286
chan	-11.5308
▁সঞ্চ	-11.5321
aildir	-11.5333
্যাট	-11.5345
কন	-11.5347
ire	-11.5374
াউ	-11.5384
tes	-11.5386
অনুগ্রহ	-11.5389
▁মানগুল	-11.5398
▁শ্রেণীবিভাগে	-11.545
inc	-11.5459
)_	-11.5463
ork	-11.5473
মিক	-11.5484
পে	-11.5504
নেস	-11.5509
েক্ষা	-11.5522
mon	-11.5538
াংশন	-11.554
ুকি	-11.5576
ধীর	-11.5576
করো	-11.5587
▁ভার	-11.5591
▁সিনট	-11.5595
পরীক্ষা	-11.5598
ায়ীরূপে	-11.5617
ালাউ	-11.5617
নির্ধারিত	-11.5622
কাস	-11.5623
মূখী	-11.5646
ানে	-11.565
roman	-11.5652
bili	-11.5655
লেট	-11.5671
তালিকায়	-11.568
▁প্রক্রিয়	-11.5697
ভেন	-11.5703
ফি	-11.5704
সংযোগ	-11.5708
▁জর্জিয়	-11.5723
▁মালা	-11.5728
▁Co	-11.5731
Do	-11.5733
বৈশিষ্ট্য	-11.5734
ক্ষে	-11.5783
▁ফোল্ড	-11.5786
জাত	-11.5792
ale	-11.5794
কনফিগারেশন	-11.58
অপসারণ	-11.5801
dev	-11.5809
সে	-11.5809
র্ধ	-11.581
▁জার্	-11.5819
▁সম্পাদ	-11.5819
চিত্র	-11.582
Dec	-11.5831
▁সম্প	-11.5836
▁যাব	-11.5841
▁স্ক্রী	-11.5844
ভিস	-11.5844
স্কেল	-11.585
ডিরেক্টরি	-11.5865
▁আইসল্যান্ড	-11.5871
শব্দ	-11.5872
ইম্পোর্ট	-11.5877
সূচী	-11.5888
লকৃত	-11.5893
অজানা	-11.5894
oad	-11.5896
▁ব্	-11.5903
তারিখ	-11.5906
count	-11.5908
▁ফু	-11.591
অনুমতি	-11.5919
পর্যায়	-11.5922
স্কার	-11.5924
▁টেক্স	-11.5925
টুলবার	-11.5926
কর্ম	-11.5927
পেজ	-11.593
নিরাপদ	-11.5935
▁op	-11.5943
অবজেক্ট	-11.5944
▁স্থাপনে	-11.5948
ডেন	-11.5969
ব্যক্তিগত	-11.5975
স্বনির্ধারিত	-11.5979
▁Wi	-11.5987
টেবিল	-11.5992
সনাক্ত	-11.5993
হেড	-11.6001
স্বাভাবিক	-11.6002
মালা	-11.6008
▁সময়সীম	-11.6009
আর্গুমেন্ট	-11.601
ুর্ণ	-11.6011
সম্পর্কিত	-11.6012
অফলাইন	-11.6013
প্রেরিত	-11.6014
অন্যান্য	-11.6022
▁প্রাকদর্শ	-11.6029
ছোট	-11.6033
বিরতি	-11.6034
স্কীমা	-11.604
গ্রী	-11.604
Mutt	-11.6043
সম্পাদনযোগ্য	-11.6043
বিনিময়	-11.6046
ণি	-11.6047
গাণিতিক	-11.6047
arch	-11.6049
২৫	-11.6051
সংগঠ	-11.6053
প্রস্তাব	-11.6057
সর্বোচ্চ	-11.6062
প্লেলিস্ট	-11.6064
মিডিয়া	-11.607
একবার	-11.607
registered	-11.607
প্র	-11.607
বৃদ্ধি	-11.6071
যা	-11.6071
▁তারিখে	-11.6072
Permissions	-11.6072
ব্যক্তি	-11.6073
কিলোবাইট	-11.6074
Cal	-11.6076
কর্মসূচী	-11.6076
কেন্দ্র	-11.6076
সনাতন	-11.608
মেটাডাটা	-11.6084
cdrecord	-11.6084
ট্যাগ	-11.6086
মিথ্যা	-11.6088
ারি	-11.6089
সরল	-11.609
সুই	-11.6094
cdrdao	-11.6096
টালি	-11.6096
মাঝ	-11.6097
Game	-11.6099
প্রচ	-11.6106
১২	-11.6106
▁গন	-11.6107
POP	-11.6109
১০	-11.611
Pine	-11.6114
্যাটি	-11.6115
াজ	-11.6116
াঙ্ক	-11.6119
nch	-11.6123
প্রাক	-11.6126
▁জাম	-11.6126
বলুন	-11.6131
িরাম	-11.6131
pass	-11.6131
▁আসর	-11.6132
১৯৯	-11.6135
ts	-11.6147
ধাপ	-11.615
ক্রমে	-11.615
দিও	-11.615
হাতে	-11.615
বিষয়ক	-11.6158
ডিফল্টরূপে	-11.6159
DSL	-11.6166
চ্ছ	-11.6167
িয়ার	-11.6181
▁অগ্	-11.6183
▁ফাইলগুল	-11.6188
ঘ	-11.619
খেলা	-11.6193
nge	-11.6202
▁অপেক্ষ	-11.6202
্যাপ	-11.6213
সংরক্ষিত	-11.6227
বেন	-11.6232
tatus	-11.6239
ated	-11.6249
▁সার	-11.6254
Com	-11.6255
িজ	-11.6261
status	-11.6262
গুমেন্ট	-11.6274
ঞ্চ	-11.6276
কেবল	-11.6276
নিচ	-11.6277
ঁড়	-11.6293
eek	-11.6302
গ্রহ	-11.6303
▁অভ্যন্তর	-11.6304
▁সিরি	-11.6309
েন্স	-11.6309
▁ক্যান	-11.631
▁PL	-11.6315
পী	-11.6317
▁ভিয়েতনাম	-11.6317
ঠা	-11.6319
ষ্ঠ	-11.6324
▁আদ	-11.6324
▁ফ্রে	-11.6327
▁থাম	-11.633
▁আয়েল	-11.6342
জানা	-11.6342
▁সংযোজ	-11.6344
▁গণ	-11.6348
▁সম্পূর	-11.6349
কম্পোসারে	-11.635
▁কনফিগ	-11.6359
▁চাচ্ছে	-11.6362
face	-11.6364
আন	-11.6365
ায়োট	-11.6366
arms	-11.6367
যোজন	-11.6368
্রয়োগ	-11.6368
▁ব্যবহৃ	-11.6369
চ্ছুক	-11.6371
krainian	-11.6371
সার	-11.6373
hange	-11.6374
▁শুক্র	-11.6376
ক্ষিত	-11.6377
▁Connecto	-11.6377
▁অ্যাকাউন	-11.6377
অ্যালায়েস	-11.6377
রম্ভ	-11.6377
▁গভীর	-11.6378
▁মঙ্গল	-11.6378
জ্জ্বল	-11.6379
serve	-11.6379
ick	-11.6379
▁গৃহ	-11.638
স্বরূপ	-11.638
▁বুধ	-11.6381
Epiphany	-11.6381
ব্ল্যান	-11.6381
▁গ্যালিয়ন	-11.6381
ক্রমাধিকারতন্ত্র	-11.6381
গ্রেনাডা	-11.6381
▁Assistant	-11.6381
▁দ্রাঘিমা	-11.6381
▁ফিলিপাইন	-11.6381
▁বৎসর	-11.6381
▁স্লোভ	-11.6381
Claws	-11.6381
Delegate	-11.6381
Double	-11.6381
Refresh	-11.6381
ector	-11.6381
module	-11.6381
xmldb	-11.6381
ডেসিমেল	-11.6381
েম্বর	-11.6381
▁Direct	-11.6381
▁Inspector	-11.6381
▁Reversi	-11.6381
▁Sylpheed	-11.6381
▁xsettings	-11.6381
▁অক্টোবর	-11.6381
▁অনুচ্ছেদ	-11.6381
▁অ্যাটোমিক্স	-11.6381
▁অ্যালগোরিদম	-11.6381
▁আর্মেনীয়	-11.6381
▁ইথিওপিয়	-11.6381
▁ইন্দোনেশিয়া	-11.6381
▁ইন্সটেন্স	-11.6381
▁এপ্রিল	-11.6381
▁কাউন্টার	-11.6381
▁ক্রোয়েশিয়া	-11.6381
▁ক্ষতিগ্রস্থ	-11.6381
▁গোলকধাঁধা	-11.6381
▁ঘনত্ব	-11.6381
▁চলচ্চিত্র	-11.6381
▁জর্জীয়	-11.6381
▁জিডিবি	-11.6381
▁জ্যাবার	-11.6381
▁টেলিপ্যাথি	-11.6381
▁ধূসর	-11.6381
▁নটিলাস	-11.6381
▁নভেম্বর	-11.6381
▁নিষিদ্ধ	-11.6381
▁নিষেধাজ্ঞা	-11.6381
▁ন্যাভিগেশন	-11.6381
▁পরিদর্শক	-11.6381
▁পরিশ্রুত	-11.6381
▁ফায়ারফক্স	-11.6381
▁ফেব্রুয়ার	-11.6381
▁বুলগেরিয়া	-11.6381
▁বেনামীভাবে	-11.6381
▁মন্তব্য	-11.6381
▁মালয়েশিয়া	-11.6381
▁রাস্তা	-11.6381
▁লগারিদম	-11.6381
▁শ্রেনী	-11.6381
▁সিমাংকি	-11.6381
▁সূর্যালোক	-11.6381
▁সেপ্টেম্বর	-11.6381
▁স্ট্যাপল	-11.6381
▁স্ট্রাকচার	-11.6381
▁স্পাইডার	-11.6381
হেলসিঙ্কি	-11.6381
ভগ্নাংশ	-11.6381
হংকং	-11.6381
▁JavaScript	-11.6381
▁xrandr	-11.6381
▁ডেলিগে	-11.6381
▁প্রডাক্ট	-11.6381
▁বাংলা	-11.6381
▁সংকটপূর্ণ	-11.6381
▁সলোমন	-11.6381
▁সুইডেন	-11.6381
ontrol	-11.6381
কোমোরো	-11.6381
▁Config	-11.6381
▁জুলাই	-11.6381
▁জ্বল	-11.6381
▁টেলেক্স	-11.6381
▁স্টেরিও	-11.6381
▁Dvd	-11.6381
▁অভিভাবক	-11.6381
▁টার্মিন্যালে	-11.6381
▁লিথু	-11.6381
application	-11.6381
linux	-11.6381
▁আঞ্জল	-11.6381
▁বিক্রেতা	-11.6381
▁url	-11.6381
▁অণু	-11.6381
▁খারাপ	-11.6381
▁নিউজিল্যান্ড	-11.6381
▁বাহিরগাম	-11.6381
▁অভিযোজন	-11.6381
ভিনসেন্ট	-11.6381
▁unregistered	-11.6381
▁ডেভেলপমেন্ট	-11.6381
Server	-11.6381
author	-11.6381
rowisofs	-11.6381
runab	-11.6381
য়েসিং	-11.6381
র্ধ্বলিপি	-11.6381
▁DUE	-11.6381
▁সফ্টওয়	-11.6381
▁উপাত্ত	-11.6381
ংইয়া	-11.6381
▁Conf	-11.6381
▁সংলাপ	-11.6381
▁নরওয়ে	-11.6381
▁গেটওয়ে	-11.6381
মাকড়	-11.6381
▁login	-11.6381
▁গুরুমুখী	-11.6381
িগ্রি	-11.6381
▁ইনজিন	-11.6381
▁ইন্টারেক	-11.6381
▁ড্র্যাগ	-11.6381
▁বজ্রবিদ্যুৎ	-11.6381
▁ইউক্রেইনিয়েন	-11.6381
▁ছায়া	-11.6381
▁redirect	-11.6381
সালভা	-11.6382
▁আসন্ন	-11.6382
▁রিপো	-11.6382
▁!!!	-11.6382
▁object	-11.6382
▁প্রতিবেশী	-11.6382
}-${	-11.6382
▁সারণি	-11.6382
বুডা	-11.6382
প্রিন্স	-11.6382
▁ব্যাক্তি	-11.6382
▁টাইটেলবারে	-11.6382
পুয়ের্	-11.6382
▁প্রশ্নাবলী	-11.6382
▁হার্জ	-11.6382
egister	-11.6382
াঙ্গুল	-11.6382
western	-11.6382
▁AND	-11.6382
▁Uni	-11.6382
বার্বাডো	-11.6382
▁টালী	-11.6382
olution	-11.6382
▁সঙ্কুচিত	-11.6382
▁উচু	-11.6382
▁৬৩৬	-11.6382
▁গ্রিড	-11.6382
▁নিম্নলিপি	-11.6382
▁ডিগ্রি	-11.6382
▁স্কেলিং	-11.6382
▁রুলার	-11.6382
টাউন	-11.6382
▁room	-11.6383
নোভো	-11.6383
▁টাচপ্যাড	-11.6383
▁লক্ষ	-11.6383
▁মার্চ	-11.6383
▁pix	-11.6383
▁বৃহস্পতিবার	-11.6383
▁মিলছেনা	-11.6383
▁সসেশন	-11.6383
inter	-11.6383
▁eine	-11.6383
▁Maildir	-11.6383
▁মেঘলা	-11.6383
path	-11.6383
▁পরিবহনব্যবস্থা	-11.6383
▁হ্যাংআপ	-11.6383
▁পারস্প	-11.6383
▁দৃষ্টি	-11.6384
▁সঙ্কট	-11.6384
▁রিলোড	-11.6384
্যাপ্স	-11.6384
desc	-11.6384
contact	-11.6384
ভেদ	-11.6384
▁মধ্যরেখাঙ্ক	-11.6384
▁ফায়ার	-11.6385
▁দুঃস	-11.6385
চরণ	-11.6385
inal	-11.6385
ডসন	-11.6385
▁বাল্ক	-11.6386
ব্যাজার	-11.6386
Day	-11.6386
▁শুক্রবার	-11.6386
▁নিয়মাবলী	-11.6386
▁মঙ্গলবার	-11.6386
▁পার্শ্বদেশ	-11.6387
▁ফেরানো	-11.6387
বুয়ে	-11.6387
info	-11.6387
োলিউশন	-11.6388
VAL	-11.6388
▁সোমবার	-11.6388
ভিকার্ড	-11.6388
▁পূর্বদর্শন	-11.6388
লিওন	-11.6389
ntl	-11.6389
▁৬০	-11.6389
PPM	-11.6389
ওয়ালিস	-11.6389
▁ইকুয়ে	-11.6389
ahoo	-11.6389
▁চলবেনা	-11.639
▁আউটব	-11.639
▁সুসং	-11.639
▁মন্টে	-11.639
▁পন্যে	-11.639
ester	-11.639
▁গতিবর্ধন	-11.639
▁ইন্সট্যান্স	-11.6391
▁বিল্ডে	-11.6391
বালসা	-11.6391
▁অবকাল	-11.6391
অ্যাল	-11.6392
▁সমর্	-11.6392
▁নীল	-11.6392
theme	-11.6392
▁হাসি	-11.6393
ীক্ষা	-11.6393
▁লিড	-11.6393
▁ক্র	-11.6394
▁সময	-11.6394
▁প্রথিত	-11.6395
লুকো	-11.6395
lename	-11.6395
▁অস্বাভাবিক	-11.6396
ju	-11.6396
▁মেটা	-11.6396
▁ORB	-11.6397
▁vc	-11.6398
বিলি	-11.6398
মাস্ক	-11.6398
▁ঝলকানি	-11.6398
▁সংগ্র	-11.64
▁আইসল্যান্ডিক	-11.64
▁বৈ	-11.64
রাগুয়ে	-11.6401
doc	-11.6401
▁ওয়াল	-11.6401
radi	-11.6402
▁ভেরি	-11.6402
▁অভি	-11.6402
জটিল	-11.6403
গাদু	-11.6403
▁বলগুলো	-11.6404
▁মিলেনা	-11.6404
▁সংবেদনশীলতা	-11.6404
▁মহা	-11.6405
▁ইন্টার	-11.6405
কোকোস	-11.6407
ডৌ	-11.6408
make	-11.6408
▁উদ্ধৃতিকৃত	-11.6409
▁প্যাডিং	-11.641
নেশিয়া	-11.641
yper	-11.641
abel	-11.641
গুই	-11.641
▁পুনরা	-11.6411
ING	-11.6411
ুবিধ	-11.6412
দাদ	-11.6413
lzma	-11.6414
▁প্রয়োগব্যবস্থা	-11.6414
সুন্দ	-11.6414
Stre	-11.6414
মায়ো	-11.6414
ছিন্ন	-11.6415
End	-11.6416
্বিয়া	-11.6417
test	-11.6417
▁কোরিয়ান	-11.6418
add	-11.6419
▁রিসোর্সসমূহ	-11.642
ICE	-11.642
কোস	-11.642
▁এক্সপ্	-11.642
▁প্রতিদিন	-11.6421
ডার	-11.6422
▁আয়েলরায়	-11.6423
ক্ষ্য	-11.6423
vid	-11.6424
▁প্রভ	-11.6427
eaks	-11.6428
visi	-11.6428
▁IO	-11.643
▁ইন্ট	-11.643
াইকা	-11.643
out	-11.6432
ress	-11.6436
CRE	-11.6436
▁DV	-11.6437
▁অ্যাপ্লেট	-11.6439
▁সুপ	-11.6439
রাশিয়া	-11.644
ব্রুনেই	-11.6441
▁দৃ	-11.6442
ump	-11.6442
ন্তর্	-11.6442
▁হাঙ্গেরি	-11.6443
PAL	-11.6443
ebrew	-11.6443
Term	-11.6444
Escape	-11.6447
▁বাঁ	-11.6447
ccura	-11.6449
ja	-11.6449
হায়ক	-11.645
▁নিবল	-11.645
ier	-11.6451
ালোক	-11.6451
▁পূরণকারী	-11.6452
মিন	-11.6453
▁বদলি	-11.6453
ref	-11.6454
▁প্রদর্শণ	-11.6454
দেশে	-11.6455
▁অপেক্ষারত	-11.6456
নেইল	-11.6456
ুঁ	-11.6456
▁ল্যাট	-11.6458
▁মেইলবাক্স	-11.6461
▁প্রত্যেক	-11.6468
কল্যান্ড	-11.647
ding	-11.6471
▁অ্যাঙ্গ	-11.6472
font	-11.6473
ity	-11.6473
▁কুক	-11.6474
ogtail	-11.6474
essa	-11.6474
হে	-11.6474
▁v	-11.6475
▁রোম	-11.6478
ওয়ে	-11.6481
▁উপল	-11.6484
Tri	-11.6484
▁চলক	-11.6484
pst	-11.6485
স্যান্ট	-11.6485
টেট	-11.6486
▁বাস্তব	-11.6488
গড	-11.6489
▁দর্শ	-11.649
▁ধারাগুলি	-11.6491
▁IMA	-11.6495
▁মুদ্রণয	-11.6499
হার্	-11.6499
স্টক	-11.65
নুবা	-11.6501
▁stat	-11.6501
্যান্স	-11.6505
King	-11.6505
▁পছন্দগুলি	-11.6506
ছবির	-11.6507
▁পাঠাও	-11.6508
▁Python	-11.6509
▁বহির্গ	-11.6513
▁পার্ট	-11.6513
spam	-11.6513
থামানো	-11.6513
▁index	-11.6513
▁অভিন্ন	-11.6514
▁উত্স	-11.6514
▁মেক্সিকো	-11.6514
▁ডোমিনিকা	-11.6514
▁সিঙ্গাপুর	-11.6515
▁মাঝারি	-11.6515
▁বৃহ	-11.6515
ভিক	-11.6515
ুতি	-11.6517
▁উর্ধ্ব	-11.6517
▁ত্রি	-11.652
▁নং	-11.652
▁filter	-11.6521
▁জানাবে	-11.6521
নিরেট	-11.6522
▁অংশগ্রহণকারীরা	-11.6523
চ্য	-11.6526
▁অভিধান	-11.6526
dump	-11.6526
ith	-11.6526
▁ফিন	-11.6526
▁জাপানী	-11.6527
টেলিফোনি	-11.6528
▁পছন্দগুলো	-11.6531
▁রোমান	-11.6532
দেবন	-11.6535
ংক	-11.6536
▁ডিস	-11.6536
▁প্রবেশাধিকা	-11.6537
োলিয়া	-11.6538
াশা	-11.6538
uk	-11.6538
filename	-11.654
ysc	-11.654
োসিয়া	-11.6542
▁স্থানান্তরণ	-11.6544
▁নাইজ	-11.6546
টাই	-11.6546
fic	-11.6546
খল	-11.6549
fie	-11.6551
IPv	-11.6552
xz	-11.6552
ko	-11.6558
gle	-11.6558
▁বইগুলো	-11.6559
দমে	-11.6559
▁ডেই	-11.656
▁জ্ঞাপন	-11.656
indi	-11.6563
▁গি	-11.6564
ইয়ে	-11.6568
মন্টি	-11.6568
STA	-11.6572
▁ক্যামেল	-11.6572
▁গ্রে	-11.6583
▁ট্র্যা	-11.6584
লমল	-11.6585
▁নামহীন	-11.6587
tk	-11.6587
▁জড়ি	-11.6589
ook	-11.6589
▁গুয়ে	-11.6594
রেন	-11.6594
শেষে	-11.6595
string	-11.6603
ীকৃত	-11.6605
▁প্রোগ্রামিং	-11.6606
▁বাজার	-11.6622
▁পেজার	-11.6626
sys	-11.6628
▁অডি	-11.6628
▁বানা	-11.6642
▁সাজানো	-11.6648
nding	-11.665
▁কিলোব	-11.665
পণ	-11.6651
মোসি	-11.6658
▁দ্র	-11.6661
নী	-11.6661
▁ফাকা	-11.6665
▁মেমোগুলি	-11.6667
▁চিহ্নিতকরণ	-11.6669
▁নির্দি	-11.6676
▁Car	-11.6683
▁সাউ	-11.6684
রিভার	-11.6685
Mov	-11.6688
su	-11.669
Re	-11.6691
টরি	-11.6694
ুক	-11.6701
▁ভাব	-11.6705
িমিট	-11.6706
য়ী	-11.6707
onts	-11.671
▁DE	-11.671
▁পাদ	-11.671
va	-11.6713
▁পৃথকভাবে	-11.6714
পোর্টো	-11.6718
▁ট্যাগ	-11.6722
ght	-11.6726
▁গাণিতিক	-11.6726
ster	-11.6728
▁ক্রস	-11.6729
▁Mutt	-11.6731
▁লোডার	-11.6731
▁কেবল	-11.6732
িও	-11.6734
▁PAL	-11.6735
সিড	-11.6737
ডেকস	-11.6737
ল্	-11.6738
▁আরব	-11.6738
pi	-11.6742
োরোন	-11.6742
প্রকাশক	-11.6744
▁r	-11.6744
▁Bu	-11.6745
Ser	-11.6749
বর্	-11.6751
▁পরিবার	-11.6752
yri	-11.6754
IL	-11.6768
কিন	-11.6772
ci	-11.6773
▁কানাডা	-11.6775
কোস্টা	-11.6784
tc	-11.6786
ল্টার	-11.6788
্যারেন	-11.6789
ুচিত	-11.6791
pf	-11.6801
▁GC	-11.6804
▁ফেস	-11.6808
▁ওয়েবলগ	-11.6815
▁আলব	-11.6818
িব	-11.6827
ভে	-11.6831
▁ডক	-11.6835
ning	-11.6836
ূর্ণ	-11.6846
▁[%	-11.6847
Gol	-11.6848
LL	-11.685
▁উইন্ডোগুলো	-11.686
শট	-11.6879
বাহরে	-11.6881
দিত	-11.6883
COM	-11.6889
▁গ্রী	-11.6893
▁আইসল্যান্ডি	-11.6897
▁দিনগুলো	-11.6899
HE	-11.6903
▁ভুলব	-11.6909
স্পে	-11.6912
অ্যাকট	-11.6913
▁সম্পাদনযোগ্য	-11.6916
▁দুর্	-11.6944
▁কাউ	-11.6952
▁কারন	-11.6952
▁UTC	-11.6952
ccount	-11.6959
▁তাগ	-11.6961
পেস্ট	-11.6964
▁রুশ	-11.6966
▁র	-11.6971
ctivation	-11.6976
ush	-11.6981
sub	-11.6986
ুলেটর	-11.6987
য়কারী	-11.6989
সামার	-11.6992
▁উঠান	-11.6996
াখি	-11.6998
▁রাখত	-11.7007
র্কা	-11.702
াপ্ত	-11.7038
রিপোর্টে	-11.705
▁অনি	-11.7062
▁পোর্টটি	-11.7066
ol	-11.7072
ss	-11.7089
▁সাইটটি	-11.7093
▁রাজা	-11.7097
গীত	-11.71
উগা	-11.7103
পূর্বাহ্	-11.711
লোম্ব	-11.7114
▁'--	-11.7115
BG	-11.7128
omanian	-11.7128
ইরো	-11.7129
▁Appl	-11.713
থায়	-11.7153
▁গ্ল	-11.7162
ica	-11.7167
্মূখী	-11.7172
▁ভু	-11.7176
▁লগইন	-11.7178
িম	-11.718
৩২	-11.7182
▁পড়ে	-11.7187
িজে	-11.719
▁xml	-11.7193
কিট	-11.7194
IB	-11.7201
▁স্ক	-11.7209
▁vo	-11.721
▁আইকনে	-11.7217
▁আকাশ	-11.7219
▁tr	-11.7237
রুট	-11.725
Ap	-11.7253
▁গ্রহন	-11.7256
▁NT	-11.7269
▁প্রমাণীকরণে	-11.7271
swa	-11.7273
্যালো	-11.7277
▁চো	-11.7281
▁স্থানা	-11.7292
▁FILE	-11.7299
▁OU	-11.73
▁সিরিয়া	-11.7303
শাস	-11.7306
ময়	-11.7309
▁হর	-11.7309
অ্যাকাউন্ট	-11.732
▁ত্র	-11.7323
ারে	-11.7328
▁অপসারণে	-11.7334
হোম	-11.7336
িউনিস	-11.7342
▁Tom	-11.7346
Ro	-11.7348
মার্টি	-11.7354
সকৃত	-11.7361
▁জিতে	-11.7361
্যা	-11.7387
br	-11.7393
াঁ	-11.7399
▁ম্যান	-11.7407
▁picture	-11.7413
ানোর	-11.7423
IC	-11.7432
▁তাহ	-11.7455
▁খা	-11.7458
পরিবর্তিত	-11.746
মেরি	-11.7461
OD	-11.7474
▁পুনরুদ্ধারে	-11.7477
▁ভব	-11.7478
▁রচ	-11.7479
পুট	-11.748
▁হন	-11.7488
▁অবশ	-11.7494
য়ান	-11.751
নটেক্স	-11.7514
▁নেবে	-11.7518
▁min	-11.7532
গতি	-11.7563
োরেস	-11.7567
▁তল	-11.7567
লম্ব	-11.7569
উজার	-11.7579
গালি	-11.7579
▁Mail	-11.7596
ear	-11.7596
▁পাঠ্যে	-11.7618
পাদন	-11.7628
▁দ্বা	-11.7629
র্ড	-11.7637
তামিল	-11.7654
▁fl	-11.7655
াকালে	-11.7664
মক	-11.7667
▁বিন	-11.7702
অধিক	-11.771
উজ	-11.7714
িমিটার	-11.7721
rin	-11.7723
টকা	-11.773
াখা	-11.7749
ৌদ	-11.7781
্রো	-11.7791
▁ঝলকা	-11.7803
উন	-11.7811
▁দাব	-11.784
▁কার্ল	-11.7841
বরা	-11.7866
▁জাম্ব	-11.7871
লেন্স	-11.7872
▁অদ	-11.7893
ছো	-11.7897
▁ক্যার	-11.7899
োর্ট	-11.7903
tol	-11.7911
ন্তত	-11.7916
িমাত্র	-11.7918
এটি	-11.7921
াঠি	-11.7928
ভ্যা	-11.7934
নৌ	-11.7935
Hel	-11.7954
▁ফি	-11.7973
ব্যর্থতা	-11.8007
evel	-11.8014
/.	-11.8015
▁গুয়া	-11.8027
গ্যাব	-11.8041
▁হাত	-11.8042
িয়	-11.8042
র্জ	-11.8045
Ju	-11.8048
▁ডাউনলোডার	-11.8069
রী	-11.8078
য়েছে	-11.8095
েসো	-11.8107
ction	-11.8118
বিক	-11.8155
ACK	-11.816
কুয়ে	-11.8179
:"	-11.8179
▁Ve	-11.8188
ast	-11.8203
Be	-11.8247
াফিক	-11.8255
li	-11.8257
▁মেইলবক্সে	-11.8265
ার্জিন	-11.8268
ডেস	-11.8269
খার	-11.8285
▁আর্মেনিয়া	-11.8287
াঠা	-11.8293
ল্লি	-11.8301
▁অনুপ	-11.8307
জেন্ট	-11.8309
স্থল	-11.8322
was	-11.8332
▁নির্ভ	-11.8338
ারী	-11.8374
াগো	-11.8439
মূল্যে	-11.8457
মটি	-11.8492
িতে	-11.8507
▁book	-11.8532
লাউ	-11.8539
▁Al	-11.8567
▁ব্যা	-11.8568
▁অ্যাগ	-11.8591
▁নিরাপদে	-11.8593
্যান্ড	-11.8599
nic	-11.8631
▁বলছে	-11.8635
▁প্রয়োজনে	-11.8647
)-	-11.8668
▁কম্পোনেন্টে	-11.8696
▁অ্যাপলিকেশনে	-11.8708
yl	-11.8748
SP	-11.8758
প্রাপ	-11.876
▁যাবেন	-11.8761
শীট	-11.8774
াসের	-11.8777
ডোর	-11.8802
▁ব্যবস্থাপকটি	-11.8804
tai	-11.8821
▁ভাষাগুল	-11.883
▁রয়েছেন	-11.8851
ধন	-11.8866
▁গ্র	-11.888
▁w	-11.8884
▁গুট	-11.8911
ভিয়েন	-11.8919
ওয়ার	-11.8929
sJ	-11.8935
▁মুখ	-11.8941
রক্ষা	-11.8986
নিন	-11.8996
এন	-11.9003
ংবা	-11.9006
ডেস্কটপ	-11.9011
SC	-11.9029
ang	-11.9039
▁ডিজ	-11.9049
▁আবর্ত	-11.9061
ংশ	-11.9064
▁হার্ডওয়	-11.9066
ওয়ার্ড	-11.9069
▁...(_	-11.9077
কাতা	-11.9088
মবু	-11.9093
চল	-11.9107
হাভ	-11.9115
▁স্ট্যাটাসবারে	-11.914
▁উইজেটে	-11.9176
oli	-11.9177
ছি	-11.9197
ভাগ্য	-11.9222
▁শ	-11.9226
▁আল	-11.9245
নামা	-11.9268
▁আইড	-11.9274
▁অপরিবর্ত	-11.933
▁নির্দেশকে	-11.9365
▁।	-11.9383
▁এল	-11.9383
ুবা	-11.9386
orp	-11.9399
mak	-11.9409
বিন	-11.9425
চু	-11.9441
িউ	-11.945
▁বস্তুগুল	-11.9455
গ্র	-11.9472
শি	-11.9487
▁মানে	-11.9501
▁Ar	-11.9535
ni	-11.9542
্রী	-11.9558
▁সংখ্যায়	-11.9581
উভয়ে	-11.9625
▁কু	-11.9629
ত্তর	-11.9656
ঙ্গ	-11.9664
কোচন	-11.9677
বৃত্ত	-11.9686
▁নির্মাণে	-11.9725
ীর	-11.9757
ফল	-11.976
)'	-11.9765
ফোন	-11.9774
পোন	-11.9787
▁সঙ্	-11.9811
▁আছ	-11.9818
▁বার্নারে	-11.9818
রান	-11.9822
▁Klo	-11.9831
দার	-11.9864
ele	-11.9866
▁থ্র	-11.9878
▁কোরিয়া	-11.9894
িমি	-12.0003
▁ওয়ার্	-12.0015
য়ানা	-12.0018
াদের	-12.0044
▁নিচ	-12.0051
বুজ	-12.0057
ফা	-12.0057
গাড়	-12.0067
AM	-12.0086
িলে	-12.0092
▁প্রাপ	-12.0096
নাক	-12.0112
নজেন্ট	-12.0133
টিশ	-12.0149
দ্ধ	-12.0162
ালন	-12.0171
হন	-12.0197
গ্রো	-12.0201
itte	-12.0202
Mont	-12.0275
Sc	-12.0293
পিত	-12.0308
▁]	-12.0326
মোটি	-12.0343
পিট	-12.0355
লজিয়া	-12.0377
উভয়	-12.0389
িশ	-12.0395
▁শো	-12.0399
▁প্রাক	-12.0435
আম	-12.0446
clu	-12.0473
ল্ট	-12.0523
হাই	-12.0564
▁o	-12.0574
▁চলা	-12.0588
▁নিম্নস্থ	-12.0596
▁ver	-12.0616
▁পু	-12.0617
▁কাগজ	-12.0627
র্ট	-12.063
লুক	-12.0631
un	-12.0663
▁গাম	-12.0669
▁বো	-12.0697
eu	-12.0713
▁ভেতরে	-12.0742
রেস	-12.075
কটি	-12.0767
জিল	-12.0768
▁Min	-12.078
র্শ	-12.0783
▁প্রে	-12.0796
▁সো	-12.0806
▁বিন্যা	-12.0807
াধা	-12.0813
▁অনুষ্ঠানে	-12.0814
▁স্লটে	-12.0835
▁এধর	-12.084
▁SI	-12.0855
ইন্স	-12.0863
লিস	-12.0874
▁স্ট্যাটাসটি	-12.0895
head	-12.0921
গন	-12.0951
ow	-12.0966
▁মডিউলে	-12.1004
UNI	-12.1009
▁ডেন	-12.102
াদন	-12.102
ক্রম	-12.1026
ামের	-12.1048
cross	-12.1085
rs	-12.1087
▁ব্রা	-12.1101
লুস	-12.1111
োধ	-12.1129
ুতু	-12.1134
ইট	-12.1168
ফ্লো	-12.119
বিরত	-12.1202
ting	-12.1212
িতি	-12.1227
কুই	-12.1227
Sa	-12.1233
fr	-12.1249
Up	-12.1251
িপি	-12.1257
uc	-12.1275
ER	-12.1299
ore	-12.1316
Activ	-12.1323
রতন	-12.1355
▁কৃত	-12.1365
রিট	-12.1367
▁স্থা	-12.1376
gree	-12.1433
ob	-12.1441
Ba	-12.1447
▁অপারেশনে	-12.1458
ইউ	-12.1557
▁সঙ্গ	-12.1569
▁সংরক্ষণস্থল	-12.1603
▁সুবিন্য	-12.1607
ানিয়া	-12.1623
ft	-12.1651
eri	-12.1664
মিড	-12.1685
্সপোর্ট	-12.1695
▁চ্যালেঞ্জে	-12.1696
▁সন	-12.1706
▁প্যাল	-12.1738
▁পরিবহ	-12.1738
দ্ধার	-12.1748
▁mo	-12.1761
▁মি	-12.1761
std	-12.177
reen	-12.1771
ুজ	-12.1778
র্ক	-12.1789
নিয়ন	-12.1806
ঙ্কু	-12.1838
দিষ্ট	-12.187
oo	-12.1889
▁বহির্	-12.1918
্ভূত	-12.1954
";	-12.1967
▁তুল	-12.198
sk	-12.1982
BU	-12.1984
▁গন্তব্যে	-12.1995
▁ab	-12.201
▁কর্মটি	-12.2012
▁লিংকে	-12.2033
▁অর্	-12.2037
ap	-12.2066
য়ীরূপে	-12.2096
লিয়া	-12.2099
ah	-12.2114
নীত	-12.2122
কু	-12.2135
ডিজা	-12.2155
বুক	-12.2161
▁পোল	-12.2166
গাদা	-12.2222
▁কিন	-12.2228
.-	-12.223
মেল	-12.2304
শত	-12.2313
▁স্বা	-12.2315
ড্য	-12.2325
la	-12.2349
▁কলব্যাকে	-12.239
▁সংব	-12.2419
অ্যা	-12.243
েনে	-12.2442
মী	-12.2443
▁সমর্থনে	-12.2461
প্রদর্শনে	-12.2464
ইয়	-12.2469
tion	-12.2515
▁সর্	-12.2526
মবা	-12.2531
নযোগ্য	-12.2554
িষ্	-12.2566
বাহ	-12.2572
▁বাস	-12.2598
our	-12.2603
রফে	-12.2605
}:	-12.2607
Po	-12.262
ষ্ক	-12.2641
▁পরীক্ষ	-12.2645
▁All	-12.2647
▁কেন্দ্রে	-12.2673
রাক	-12.2675
বাধিক	-12.2695
aps	-12.2755
সিয়া	-12.276
▁নেপ	-12.2833
াইভে	-12.2834
TCH	-12.2837
ুদ	-12.2852
▁ঘু	-12.2858
পান	-12.2884
▁অনেকগুল	-12.2887
কেন	-12.2914
২৬	-12.2917
▁Se	-12.2931
▁প্লেলিস্টে	-12.2984
Fre	-12.299
▁প্রসঙ্গে	-12.2991
KS	-12.3027
▁অপেক্ষাকারী	-12.3059
তর	-12.3062
লোর	-12.3084
spa	-12.3101
লর্ড	-12.3108
্তা	-12.3127
ডে	-12.3142
তামূলক	-12.3163
্দিষ্ট	-12.3175
▁উঁ	-12.3187
uer	-12.3219
▁আকা	-12.3256
িড	-12.3265
▁স্মরণলিপিটি	-12.3281
EC	-12.3286
ক্রি	-12.3308
বাগ	-12.3309
নাল	-12.3335
▁নির্বাচ	-12.3352
mple	-12.3363
▁বুদ্	-12.3378
unes	-12.3403
কিৎ	-12.3416
।)	-12.3436
▁অন্তর	-12.3438
▁অনা	-12.3443
রিব	-12.3488
▁er	-12.3514
নমেন্ট	-12.356
নকারী	-12.3565
▁সূচ	-12.3593
্যালেন্	-12.3605
ad	-12.3616
সাই	-12.3619
।--	-12.3631
লিজ	-12.3651
ঘটন	-12.3658
▁প্রক	-12.3675
▁লা	-12.3678
শান	-12.3681
▁ব্যবস্থ	-12.3732
কাঠ	-12.3758
কল	-12.3764
▁সম্প্র	-12.3768
কম্	-12.3788
▁আনু	-12.3799
ৃষ্টি	-12.3804
জিত	-12.3817
io	-12.3842
ette	-12.3851
▁ইন্সট্যান	-12.3879
িনা	-12.3879
কর	-12.3893
কিং	-12.3897
মোট	-12.3907
মন্ট্	-12.3938
গ্রিক	-12.397
্লা	-12.3986
▁রু	-12.3987
েলা	-12.3989
ার্য	-12.4008
লুই	-12.402
ebr	-12.4034
ace	-12.4066
নীয়	-12.4067
লাগ	-12.4096
দ্বারা	-12.4097
্সি	-12.4179
েইজ	-12.4186
িল্ড	-12.419
শী	-12.4198
ভো	-12.4201
erm	-12.4204
▁টো	-12.4211
বন	-12.4223
পেন	-12.4249
লটি	-12.4254
▁প্রিন্টার	-12.4255
og	-12.4256
াব	-12.4297
ac	-12.4318
▁রিকা	-12.4325
lz	-12.4363
uf	-12.4377
লন্ড	-12.4408
পরিচিতি	-12.4414
ডিয়া	-12.4439
পর্যাপ	-12.4441
Au	-12.4452
▁রাজ	-12.4457
Evolution	-12.4458
▁বিজ্ঞপ্তিস্থল	-12.4478
নয়	-12.4484
▁কার্	-12.4497
▁রুপ	-12.4503
স্থান	-12.4507
work	-12.4509
এবং	-12.4513
োর্	-12.4517
দন	-12.4524
▁সারাংশে	-12.4526
ডান	-12.4578
fle	-12.4585
আলজ	-12.4602
হয়নি	-12.4629
ন্	-12.4633
েছিল	-12.4642
প্রেরণ	-12.4644
র্জন	-12.4652
▁হ্যা	-12.4683
▁ইয়ে	-12.4683
ানীয়	-12.4696
মিটার	-12.4758
ho	-12.4785
ার্থে	-12.4786
▁rece	-12.4804
টিভ	-12.4851
উপস্থিত	-12.4859
অনুলিপি	-12.4859
র্ন	-12.487
ায়ন	-12.4879
▁স্থি	-12.4889
ন্ডু	-12.4931
nes	-12.4939
্রেড	-12.4945
েগু	-12.4951
sday	-12.4964
াইস	-12.4969
স্কি	-12.4972
LA	-12.4979
)%	-12.4982
▁উঠ	-12.4988
nable	-12.5011
স্প	-12.5025
ব্যা	-12.5057
▁উচ্চত	-12.507
ফেলা	-12.5076
বস্তু	-12.5081
োক্	-12.5081
ক্ষেত্র	-12.5107
rame	-12.5134
অবস্থান	-12.5154
ignor	-12.5173
ti	-12.521
স্থায়ী	-12.5228
োট	-12.5231
োমা	-12.5235
ঁচ	-12.5236
ভেল	-12.5246
য়ার্ন	-12.5254
ল্প	-12.5256
মু	-12.5267
াখ	-12.5276
বিদ্যমান	-12.528
াসূচক	-12.5303
ট্র	-12.5309
ভাব	-12.5313
▁চালটি	-12.5326
▁Ac	-12.5327
গুস	-12.5332
য়ন	-12.5334
্জিন	-12.5343
ds	-12.5368
েলে	-12.5377
শো	-12.538
পাজ	-12.5383
ট্যাব	-12.5387
▁ব্যবস্থাপন	-12.5408
rt	-12.5413
ঙ্গুন	-12.5414
pt	-12.5427
ঙ্গে	-12.5433
ctive	-12.5439
আমেরিকা	-12.5446
▁কানাড	-12.5453
সংযুক্ত	-12.5462
RO	-12.5462
ভূত	-12.5465
াঁচ	-12.5507
সংস্করণ	-12.5525
গ্লে	-12.5531
Str	-12.5543
অকার্যকর	-12.5543
মুখে	-12.5545
কিনা	-12.5548
▁ডানদিক	-12.5551
activat	-12.5554
মেমো	-12.5574
কার্যকর	-12.558
▁শিরোনামে	-12.5587
rf	-12.559
an	-12.56
ট্	-12.5604
অ্যাপ্লিকেশন	-12.5606
সম্পাদন	-12.5607
অন্য	-12.5617
▁সংরক্ষ	-12.5623
দৃশ্য	-12.5633
বিষয়বস্তু	-12.5657
চাল	-12.5675
পুনরুদ্ধার	-12.5681
উত্তর	-12.5689
▁প্রতিক্রিয়	-12.5693
▁মাল	-12.5699
ডাউনলোড	-12.5703
াইফ	-12.5707
ব্যর্থ	-12.5711
সম্পাদক	-12.5712
প্রক্সি	-12.5714
করার	-12.5717
প্রক্রিয়া	-12.5719
▁কোস্ট	-12.5722
জার	-12.5724
row	-12.5728
ট্র্যাক	-12.5733
▁প্রয়	-12.5733
বিবরণ	-12.5734
জিনোম	-12.5772
ফেস	-12.5773
Empathy	-12.5774
স্থানান্তর	-12.5785
সম্পাদনা	-12.5786
uni	-12.58
code	-12.5801
ock	-12.5802
াবল	-12.5823
Esc	-12.5823
ত্ব	-12.5829
িগা	-12.5832
উপর	-12.5838
কেপ	-12.5838
জনস্	-12.5853
সংযুক্তি	-12.5866
গুয়ে	-12.5871
IMAP	-12.5875
sp	-12.5876
থাকা	-12.5889
পছন্দ	-12.5891
বর্ষপঞ্জি	-12.5894
লিংক	-12.5897
▁রক	-12.5898
[	-12.5902
LDAP	-12.5904
কোণ	-12.5908
থ্রেড	-12.5911
প্রতিনিধি	-12.5913
স্ক্যান	-12.5923
প্রারম্ভিক	-12.5923
হং	-12.5927
▁পর্য	-12.5927
জ্ঞাপন	-12.5931
মধ্য	-12.5931
ল্লেখকৃত	-12.5947
ক্যালেন্ডারে	-12.5947
log	-12.5948
ক্যামেরা	-12.595
পছন্দসমূহ	-12.5954
▁বাহি	-12.5956
▁লু	-12.5958
▁ফো	-12.5958
ডিবাগ	-12.596
স্ক্রিপ্ট	-12.5962
ক্র্যাশ	-12.5966
নীচে	-12.5969
ঠিকানাবই	-12.5975
লেবেল	-12.5977
back	-12.5985
সিরিলিক	-12.5986
সংখ্য	-12.5986
স্ট্রিম	-12.5987
আঙ্গুল	-12.5988
নেই	-12.599
স্থাপিত	-12.599
চীনা	-12.5992
নিয়ম	-12.5993
কায়	-12.5994
▁হব	-12.5999
উদাহরণ	-12.6002
rac	-12.6002
ফো	-12.6004
বাইট	-12.6009
বিচ্ছিন্ন	-12.601
অতি	-12.601
বিজ্ঞপ্তিস্থল	-12.6012
▁টেলিফোন	-12.6015
অবৈধ	-12.6015
উত্তীর্ণ	-12.6016
অনুরূপ	-12.6016
খন্ড	-12.6019
জোড়	-12.602
স্থগিত	-12.6022
Car	-12.6023
উইন্ডোজ	-12.6026
অভিধান	-12.6027
ছাড়া	-12.6028
ধু	-12.6028
filter	-12.603
এক্সচেঞ্জ	-12.6031
জিজ্ঞাসা	-12.6032
বর্গ	-12.6033
লেখক	-12.6033
পার্শ্ব	-12.6034
PA	-12.6035
আদর্শ	-12.6042
▁Star	-12.6044
পছন্দসই	-12.6045
দ্রুত	-12.6045
জর্জিয়া	-12.6045
ডাকনাম	-12.6047
সিঙ্গাপুর	-12.6047
ডোমিনিকা	-12.6048
মেক্সিকো	-12.6048
ইউনিকোড	-12.6049
জাপানী	-12.6049
মাঝারি	-12.605
index	-12.605
হিব্রু	-12.6051
পাঠযোগ্য	-12.6053
sendmail	-12.6053
জন্মদিন	-12.6054
দক্ষিণ	-12.6054
উর্ধ্ব	-12.6054
তুর্কি	-12.6056
ভায়	-12.6058
লাইব্রেরী	-12.6059
Python	-12.606
সুসংগতি	-12.6064
বৃহ	-12.6064
বহিঃ	-12.6064
্যে	-12.6065
সেটিংস	-12.6066
পুনঃ	-12.6067
স্বচ্ছ	-12.6067
অ্যান্টি	-12.6067
ekiga	-12.6071
ট্রিগার	-12.6072
মেগাবাইট	-12.6072
ঝু	-12.6073
শিল্পী	-12.6073
বাধ্যতামূলক	-12.6073
বামদিকে	-12.6073
ডানদিকে	-12.6074
স্টিকি	-12.6074
পুরো	-12.6076
প্রজাতন্ত্র	-12.6076
SH	-12.6076
উল্লেখ্য	-12.6076
উপরে	-12.6077
জাপানি	-12.6078
ফুটার	-12.6078
অথোরিটি	-12.6078
trans	-12.6078
AisleRiot	-12.6079
গভীরতা	-12.608
দ্বীপ	-12.6081
minute	-12.6081
জনপ্রিয়	-12.6081
যেকোন	-12.6081
অর্থাৎ	-12.6082
ভরাট	-12.6084
▁এশ	-12.6085
উচ্চ	-12.6085
cdr	-12.6085
গৃহীত	-12.6086
বাস্তব	-12.6086
Alt	-12.6086
সরাত	-12.6088
উপ	-12.6088
stat	-12.6088
পয়েন্ট	-12.6089
পার্ট	-12.6089
শ্রী	-12.6094
বাল্টিক	-12.6095
সুবিধা	-12.6099
account	-12.6101
মাউন্ট	-12.6102
Acce	-12.6102
জোড়া	-12.6103
লিপি	-12.6104
২৪	-12.6105
`	-12.6108
প্রিন্টার	-12.6109
▁আলাপ	-12.6109
৩০	-12.6113
ফ্যাক্স	-12.6113
রিডার	-12.6116
▁হো	-12.6117
tableau	-12.6119
▁ডিস্	-12.612
৪০	-12.6121
পোকা	-12.6123
▁এডিট	-12.6124
নিয়ন্ত্র	-12.6124
▁ইন্সপেক্ট	-12.6125
শতাংশে	-12.6125
xt	-12.6126
বিস্তার	-12.6126
বর্ণ	-12.6127
গড়	-12.613
১৫	-12.6134
জিব	-12.6135
রেখা	-12.6141
▁dog	-12.615
তাড়া	-12.6154
পুরা	-12.6155
থা	-12.6159
ঘুর	-12.6161
প্রাপ্তি	-12.6162
প্যানেলে	-12.6165
প্রদানে	-12.6167
▁থামান	-12.617
ডিরেক্ট	-12.6174
চালনা	-12.6175
▁হচ্ছ	-12.6181
্ল	-12.6184
form	-12.6193
tail	-12.6194
টোক	-12.6194
▁এন্ট্র	-12.6198
ছকে	-12.62
মেরু	-12.6203
▁division	-12.6204
app	-12.6204
ধ্বনি	-12.6208
▁রেন্ড	-12.6218
ager	-12.6218
শ্রেণী	-12.6218
▁প্রত্যা	-12.6219
▁পরিমা	-12.6224
Th	-12.6227
দৃ	-12.6227
শুধু	-12.6232
▁হাঙ্গ	-12.6235
ize	-12.6235
▁ব্রুনে	-12.6236
জাম্বি	-12.6238
োড	-12.6241
ifier	-12.626
বাঁ	-12.626
ন্টিয়া	-12.6262
▁সার্টিফিকে	-12.6265
Address	-12.6266
অন্ত	-12.6271
জো	-12.6278
hat	-12.6279
parent	-12.628
মূহ	-12.6281
Stat	-12.6287
জী	-12.6288
মিলিসেকেন্ড	-12.629
থাই	-12.6292
▁বুকমার্	-12.6294
ডাক	-12.6296
ডেট	-12.6298
জাম	-12.63
con	-12.6304
▁বহুব	-12.6305
▁হিসেব	-12.6313
গরী	-12.6313
Acc	-12.6314
ean	-12.6315
uthentication	-12.6316
▁রয়েছ	-12.6317
ার্ট	-12.6319
পিয়	-12.6319
▁যথা	-12.6321
▁gnom	-12.6321
▁আবর্জ	-12.6325
▁মাধ্যম	-12.6325
লোম	-12.6328
্যালেন্ডার	-12.6328
ত্সর	-12.6329
উত্তরে	-12.6329
olum	-12.6331
ble	-12.6333
▁উপযোগি	-12.6339
ন্ডে	-12.634
াটভিয়া	-12.6345
স্ট্যা	-12.6347
▁অনুলিপ	-12.6348
▁বিপর্য	-12.6348
ঞ্চিত	-12.6349
▁উচি	-12.6349
▁গুজরা	-12.635
▁ইঞ্চ	-12.6351
▁তুর্ক	-12.6352
bject	-12.6353
▁গতিবর্ধ	-12.6359
▁ছাড়	-12.6359
comp	-12.6359
▁Syn	-12.6361
ubject	-12.6363
▁পৃথ	-12.6365
he	-12.6365
পিফানি	-12.6367
নসোল	-12.6367
ভিন্স	-12.6369
▁গোল	-12.6369
পরিত্য	-12.6369
▁অবাঞ্ছ	-12.637
▁দুঃ	-12.6371
ানাডা	-12.6371
্যাঙ	-12.6371
▁অসমর্থ	-12.6372
▁বিবর্ধ	-12.6372
▁নিবন্ধি	-12.6372
হির্গামী	-12.6372
ontact	-12.6373
ঙ	-12.6373
াম্বো	-12.6374
নুভূমিক	-12.6374
্যান্ডউই	-12.6374
▁বৃহস্পতি	-12.6376
icture	-12.6376
inute	-12.6376
য়াহু	-12.6377
▁ভবিষ	-12.6377
▁বার্ষিক	-12.6377
▁হ্যাং	-12.6377
ন্টার্কটিকা	-12.6377
▁মসৃ	-12.6378
জ্ঞা	-12.6378
কুচি	-12.6378
ইউক্রেন	-12.6378
roupw	-12.6378
ব্রিস	-12.6379
োগাযোগ	-12.6379
ক্রিপ্ট	-12.6379
▁টাইটেল	-12.6379
▁টার্মিন	-12.6379
অপরাহ্	-12.638
রেক্ট	-12.638
solut	-12.638
দক্ষি	-12.638
ল্লেখিত	-12.638
▁সার্টিফ	-12.638
jects	-12.638
জেক্ট	-12.638
▁বজ্রবিদ্যু	-12.638
direct	-12.638
রকল্পটি	-12.638
ুরুত্ব	-12.638
▁ইউক্রেইন	-12.6381
▁জিনিষ	-12.6381
্তিস্থলে	-12.6381
ঙ্গারপ্রিন্ট	-12.6381
▁নিষ্ক্র	-12.6381
ভেলপমেন্ট	-12.6381
ভেলপারদের	-12.6381
eighbor	-12.6381
▁সরবরাহক	-12.6381
প্লিকেশনে	-12.6381
▁স্বনির্ব	-12.6381
urni	-12.6381
Script	-12.6381
গোরিদম	-12.6381
াধ্যতা	-12.6381
▁পরিশ্র	-12.6381
মালদ	-12.6381
▁কন্ট্	-12.6381
point	-12.6381
erna	-12.6381
পঞ্জি	-12.6381
▁অ্যাপ্লিকে	-12.6381
ক্রিপশন	-12.6381
যাক্ট	-12.6381
্যাখ্যা	-12.6382
▁অ্যাডমিন	-12.6382
▁ভিজুয়	-12.6382
▁ইউরো	-12.6382
দ্দ	-12.6382
ideo	-12.6382
উইন্ড	-12.6382
etti	-12.6382
ক্টরি	-12.6382
দ্দেশ	-12.6382
▁পিক্স	-12.6383
গাবাইট	-12.6383
থ্যাব	-12.6383
স্ট্রেট	-12.6383
ডোমি	-12.6383
শ্চি	-12.6383
আন্টা	-12.6383
াচ্ছন্	-12.6383
্বপ্	-12.6383
েট্রা	-12.6383
▁ফিল্	-12.6384
ইন্ডিয়া	-12.6384
▁sym	-12.6384
উইন্	-12.6385
এনকো	-12.6385
▁Reg	-12.6385
▁স্বত্ব	-12.6385
▁চক্র	-12.6386
oundation	-12.6386
XX	-12.6386
ফিকেট	-12.6387
জিল্যান্ড	-12.6387
াভাস	-12.6388
্পরিক	-12.6388
্রম	-12.6388
conf	-12.6388
▁এক্সট্র	-12.6389
র্বজনীন	-12.6389
্বপূর্ণ	-12.6389
▁প্রতিষ্ঠ	-12.639
▁কনফা	-12.639
▁হিন্	-12.639
প্যারাম	-12.639
ীর্ণ	-12.639
lena	-12.6391
রেডিয়ান	-12.6391
▁ফাংশ	-12.6391
▁মাল্টি	-12.6392
পার্থ	-12.6392
▁ক্লাস	-12.6393
মিন্	-12.6394
ণ্ড	-12.6395
রেইনি	-12.6395
ধীন	-12.6395
▁scr	-12.6396
VER	-12.6396
স্বর	-12.6397
▁গুরু	-12.6397
▁মিনি	-12.6398
▁পাঠিয়েছে	-12.6398
▁লেভ	-12.6398
▁স্থিতি	-12.64
▁স্বয	-12.6401
টার্ক	-12.6401
▁মেগা	-12.6403
ব্রাসে	-12.6404
▁অংশগ্র	-12.6404
▁অ্যান্ট	-12.6405
▁চুক্তি	-12.6405
▁অস্ট্র	-12.6406
ফ্ট	-12.6406
ঘ্য	-12.6406
▁গোলক	-12.6407
▁অ্যালার	-12.6408
মেন্টেশন	-12.6408
্দে	-12.641
ount	-12.641
Sea	-12.641
▁অংশগ্রহ	-12.641
pan	-12.6412
নুম	-12.6412
লম্বি	-12.6415
অনুক	-12.6416
য়োগ	-12.6421
yrin	-12.6422
estern	-12.6423
ণকারীদের	-12.6423
রিন্ট	-12.6423
Add	-12.6423
▁মিলছে	-12.6426
▁অনুমো	-12.6426
িন্যাস	-12.6426
tree	-12.6427
MER	-12.6427
▁শুধু	-12.6427
স্ট্যান	-12.6428
ক্ষেত্রেই	-12.6428
▁মালয়	-12.6429
ৎকার	-12.6429
▁আড়া	-12.643
অব	-12.643
▁ফিলি	-12.6432
West	-12.6432
new	-12.6432
▁মিশ	-12.6433
গগু	-12.6436
jar	-12.6436
মুখি	-12.6437
ডিউ	-12.6438
▁বোত	-12.644
Lab	-12.6442
tog	-12.6442
ঙ্গিত	-12.6443
ংক্রিয়ভ	-12.6444
ন্ডিং	-12.6445
▁মঙ্গ	-12.6445
▁মালি	-12.6446
পাস	-12.6446
▁অটো	-12.6448
look	-12.6448
গ্রেড	-12.6448
▁টোকে	-12.6448
▁জন্ম	-12.6448
ভাড	-12.6449
ate	-12.645
াঙ্কন	-12.645
্রেট	-12.6451
eck	-12.6451
▁পর্যায়ে	-12.6451
মাউ	-12.6454
▁Cat	-12.6454
▁ফর	-12.6456
হ্	-12.6457
data	-12.6461
▁ভে	-12.6467
টোম	-12.6467
্রিয়া	-12.6468
আস	-12.6468
bble	-12.6469
▁মৌ	-12.647
িউটা	-12.6472
সম্প	-12.6473
ক্ষণিক	-12.6473
▁যথার্	-12.6473
ানুয়া	-12.6473
▁ধাপগুল	-12.6474
▁সাহা	-12.6479
রিকা	-12.648
▁সম্পূর্	-12.6481
▁সুপার	-12.6481
টেম	-12.6482
ডিভ	-12.6485
umb	-12.6485
ফোক	-12.6485
Can	-12.6486
জিয়া	-12.6487
▁সহযোগ	-12.6488
ape	-12.6488
man	-12.6489
অপসারণে	-12.6489
ddressbook	-12.6491
রফক	-12.6491
▁roo	-12.6492
SCS	-12.6492
র্ণ	-12.6497
▁সপ্তা	-12.6497
gz	-12.6501
▁সেগ	-12.6502
▁সতর্	-12.6502
uite	-12.6505
াগরী	-12.6506
োকেন	-12.6509
ral	-12.6512
রিখ	-12.6513
ডারবার	-12.6514
যক্ত	-12.6515
বুদ	-12.652
XM	-12.652
her	-12.6521
ered	-12.6521
▁রেড	-12.6523
▁প্রাথ	-12.6526
াউস	-12.6527
cab	-12.6528
▁ei	-12.6528
োয়াজ	-12.6529
volu	-12.6534
▁libb	-12.6535
প্রা	-12.6535
্ব	-12.6539
মূ	-12.654
uri	-12.654
▁পেশ	-12.6545
▁লাইব	-12.6545
▁অস্থ	-12.6546
পাও	-12.6546
বিদ	-12.6549
▁পরাম	-12.6549
পর্যায়ের	-12.655
উজগ	-12.6552
পশন	-12.6557
বহার	-12.6558
কৃতি	-12.656
mit	-12.6561
ভদ	-12.6562
অ্যাড	-12.6563
▁Mu	-12.6563
্পা	-12.6565
পরীক্ষ	-12.6569
সিম	-12.6571
ডিস	-12.6571
দ্রে	-12.6572
অনুল	-12.6574
য়েল	-12.6576
র্তী	-12.6577
unt	-12.6577
tual	-12.6578
▁বাল্	-12.6578
ীভ	-12.6579
্যাভ	-12.658
বিন্যাসে	-12.658
▁ডিরেক্ট	-12.658
▁i	-12.6587
কারগুলি	-12.6596
▁Sta	-12.6596
▁নিয়ন্ত্র	-12.6597
atal	-12.6605
▁আউ	-12.6607
কাশ	-12.6608
▁খে	-12.6609
টেক	-12.661
োভা	-12.6611
াতন	-12.6614
▁অবাঞ্	-12.6615
াহান	-12.6617
▁বস্তুস	-12.6618
ist	-12.662
▁অ্য	-12.6621
tic	-12.6621
়ভাবে	-12.6622
▁ধ্ব	-12.6623
▁অনুম	-12.6623
anager	-12.6626
ংস	-12.6629
▁আর্	-12.6634
এড	-12.6635
উই	-12.6636
ামিক	-12.6636
arat	-12.6639
ধারিত	-12.6641
ষার	-12.665
▁সমা	-12.6651
IME	-12.6652
র্থিত	-12.6656
শ্রি	-12.6657
ায়েন্ট	-12.6658
র্গুমেন্ট	-12.6659
কোনটি	-12.6662
tor	-12.6666
সাদ	-12.6667
ম্যানা	-12.6673
▁জোড়	-12.6677
rar	-12.6682
সাগর	-12.6682
বশ্যক	-12.6691
ল্পে	-12.6692
ডাম	-12.6692
বৃত	-12.6696
▁ফাঁকাকর	-12.6696
▁ইম্প	-12.6698
mbo	-12.6701
ath	-12.6703
▁অপরি	-12.6704
োমিন	-12.6708
ালেন	-12.6709
মনট	-12.671
উইন	-12.6713
০৯	-12.6718
সাদৃশ্য	-12.6721
▁mi	-12.6723
▁ইউক	-12.6725
োদন	-12.6726
উম	-12.673
play	-12.6731
▁থামা	-12.6732
▁এক্সটেন	-12.6735
Tre	-12.6736
য়নি	-12.6737
▁ক্রমব	-12.674
Br	-12.675
▁Le	-12.6759
সেলস	-12.6765
ন্ডি	-12.6766
্যান্ডি	-12.6769
▁রোল	-12.6774
▁LD	-12.6774
াইড	-12.6775
det	-12.6778
▁জুড়	-12.6781
▁লোক	-12.6782
অস	-12.679
্ঠ	-12.6794
▁মড	-12.6804
্যাকাউ	-12.6807
▁বর্গ	-12.6809
বাক্	-12.6812
▁কোয়ের	-12.6814
Pi	-12.6817
▁বস্ত	-12.6823
▁back	-12.6824
তাস	-12.6832
্তুগ	-12.6832
বন্ধ	-12.6832
ঙ্কক	-12.6837
স্টল	-12.6842
Ga	-12.685
Fe	-12.6867
াউটি	-12.6867
▁ক্লি	-12.6869
▁ব্রাস	-12.6871
▁পরিচাল	-12.6873
wi	-12.6877
১তম	-12.6878
র্কে	-12.6888
প্যার	-12.6893
▁gd	-12.69
্টো	-12.6901
ত্রি	-12.6914
▁পূর	-12.6917
HK	-12.6919
▁un	-12.6927
হিক	-12.6929
▁খুঁ	-12.6933
কমার্	-12.6942
টিমু	-12.6944
রেজি	-12.6947
োজি	-12.6969
▁কানে	-12.6972
eve	-12.6975
▁মেয়	-12.6978
▁Ti	-12.6979
সোয়া	-12.6979
Ch	-12.6984
টাট	-12.6988
্ট্রিং	-12.6991
aut	-12.6994
এন্ট	-12.6996
ক্ষন	-12.701
▁তাৎ	-12.7011
▁আচ	-12.7015
nicode	-12.7015
দর্শণ	-12.7023
মার্কস	-12.7028
ইসে	-12.7042
Send	-12.705
▁স্টার্	-12.7056
িয়ন	-12.7058
্যতা	-12.7065
াজে	-12.7071
▁fo	-12.7072
tr	-12.7087
মুদ	-12.7089
শোধ	-12.7098
তাকা	-12.7099
▁আঙ্গু	-12.71
চো	-12.7106
ূন	-12.7114
কুর	-12.7124
earch	-12.7126
পথ	-12.7127
▁তুর	-12.7134
ডেল	-12.7138
নু	-12.7146
অঙ্ক	-12.7148
পতি	-12.7153
▁ক্রমা	-12.7156
ায়াল	-12.7157
থো	-12.7161
৬২	-12.7177
্যাঙ্গ	-12.7197
লাগো	-12.7199
ওয	-12.72
My	-12.7206
▁বাছাইক	-12.7213
Ter	-12.7215
কিভ	-12.7223
প্রান্ত	-12.7229
rw	-12.7262
ht	-12.7269
েলস	-12.7271
ome	-12.7282
িজুয়	-12.7288
ক্সে	-12.729
▁প্রকৃত	-12.73
টাস	-12.7313
মানি	-12.7321
dit	-12.733
Ice	-12.7339
rce	-12.7352
▁log	-12.7354
mo	-12.7368
র্যক	-12.737
্যাম	-12.7383
দ্	-12.7383
ডিক	-12.7384
ল্যাট	-12.7385
▁বানানে	-12.739
লন	-12.7397
ুধু	-12.7398
▁আক	-12.7408
▁ob	-12.7429
র্ণন	-12.7438
▁উজ	-12.7442
রসা	-12.745
▁Au	-12.7456
▁উল্ট	-12.7458
টিভি	-12.7468
sol	-12.747
red	-12.7481
gen	-12.749
গলি	-12.7491
▁হেড	-12.7508
ration	-12.7536
রিগা	-12.7536
▁যো	-12.7564
পুর	-12.7574
রোম	-12.7578
কবার্তা	-12.758
gt	-12.758
দিনে	-12.7581
টাইন	-12.7582
▁স্ত	-12.7587
▁ক্যাল	-12.7588
▁FI	-12.7605
িলা	-12.7609
রবিন	-12.7612
▁আপেক্ষ	-12.7617
hon	-12.7636
▁Ro	-12.7641
gc	-12.7655
আবা	-12.7657
লেখ	-12.7659
then	-12.7666
নভেল	-12.7685
ati	-12.7689
▁প্যারামিটারে	-12.7701
ুপে	-12.7703
▁সেন	-12.7704
রিচ	-12.7709
▁ev	-12.7711
রেজ	-12.7716
lm	-12.7721
্রয়	-12.7729
cn	-12.7733
▁ইভ	-12.7745
িয়ানা	-12.7766
rue	-12.778
▁অধী	-12.7795
থলে	-12.7803
lty	-12.7815
nd	-12.7827
ইরক	-12.783
▁ক্	-12.7838
DE	-12.7855
ুস	-12.7857
oc	-12.7858
লাফ	-12.7874
এজ	-12.7937
▁স্কেল	-12.7945
মাজ	-12.7948
ডায়াল	-12.7948
▁Gi	-12.7974
init	-12.7994
রোপ	-12.7999
ধারন	-12.8007
র্তে	-12.8009
▁হং	-12.8014
চক	-12.8017
▁জিব	-12.8017
▁অনুল	-12.8023
স্টে	-12.8025
নকাল	-12.8049
len	-12.8068
evhelp	-12.8095
▁স্থাপনা	-12.8098
ora	-12.8109
ঙ্কো	-12.8115
Blo	-12.8126
nf	-12.8161
লেন	-12.8164
ঙ্গি	-12.8191
ুরো	-12.8203
স্থিত	-12.821
েনা	-12.8212
নাউ	-12.823
lea	-12.8251
▁ডিবা	-12.826
ons	-12.8294
ার্তা	-12.8301
▁Ge	-12.8304
মেরা	-12.8319
বাল	-12.8322
আরব	-12.8326
প্	-12.833
ানার	-12.8356
াইট	-12.837
tri	-12.8375
াড়া	-12.8377
ুনি	-12.8377
পিক	-12.8397
নিভ	-12.8405
ায়ার্ন	-12.8421
কেই	-12.8432
yp	-12.8433
েস্ট	-12.8457
াপে	-12.8482
িকেট	-12.8483
তাহ	-12.8502
য়ি	-12.8515
পোর	-12.8536
▁হাই	-12.855
▁সঞ্চা	-12.855
ার্সি	-12.8552
▁Ga	-12.8555
BO	-12.8588
Wo	-12.8619
▁ওয়ে	-12.8668
মান্ড	-12.8673
রং	-12.8692
▁রুমান	-12.8699
াসিক	-12.8701
লস	-12.8701
etwork	-12.8704
IT	-12.871
▁এন্ড	-12.8725
বেইন	-12.8778
Tim	-12.8812
Ki	-12.8822
ষ্	-12.8828
নস্ট	-12.8861
সেলের	-12.8882
▁হও	-12.8899
FI	-12.8906
AI	-12.892
সংরক্ষণের	-12.8941
IDE	-12.8942
Sh	-12.9027
রিলি	-12.9062
▁ইউক্রেইনিয়	-12.9079
▁সামগ্র	-12.9085
ানস	-12.9088
Ea	-12.9101
িয়র	-12.9109
sel	-12.9122
▁জানাব	-12.9137
ুলুপ	-12.9139
য়াড়	-12.9142
mes	-12.9196
▁bo	-12.9214
ibi	-12.9228
▁ধ	-12.923
গ্রে	-12.9237
▁পারছ	-12.9264
োটা	-12.9359
িজুয়া	-12.9388
ধূ	-12.9518
এথ	-12.9524
▁সহায়তাক	-12.9544
য়াক	-12.9552
ীব	-12.9564
▁ইন্সট্যান্	-12.9568
জুল	-12.9574
িয়েছে	-12.9587
▁অনুরোধে	-12.9604
লিন	-12.9604
▁Wa	-12.9611
Na	-12.9665
দ্র	-12.9683
ult	-12.97
▁chan	-12.9731
বাম	-12.9733
art	-12.9761
াকচ	-12.9767
চে	-12.977
াসি	-12.9779
▁টোক	-12.9788
ond	-12.9819
াই	-12.9822
ুলু	-12.9828
ক্যাল	-12.9846
উপাদানে	-12.9852
EB	-12.9885
আমা	-12.9922
${	-12.9952
▁পর্যা	-12.9968
timed	-12.999
▁ক্যামের	-12.9997
▁অ্যাকা	-12.9998
▁শী	-13.0002
ততা	-13.0021
লিকা	-13.0025
বেলে	-13.003
▁থে	-13.0064
স্টন	-13.0066
নেল	-13.0081
ndar	-13.0096
FT	-13.01
ণা	-13.0117
Di	-13.0119
▁("	-13.013
pri	-13.0166
বেই	-13.0204
ানমার	-13.0208
ডোজ	-13.0219
ওপ	-13.0229
ারকা	-13.026
▁ইজ	-13.0343
▁বস	-13.0357
ART	-13.0399
▁অ্যাপ্লিকেশনগুল	-13.0435
য়িত	-13.0464
ষ্ঠা	-13.0491
ম্ম	-13.05
▁আপন	-13.0547
োবা	-13.0572
▁তু	-13.0572
▁বেল	-13.0575
কীয়	-13.0593
িয়েছেন	-13.0617
▁কনফিগারে	-13.0638
োগা	-13.0685
▁par	-13.0735
রেক	-13.0737
রার	-13.0763
DI	-13.0769
্ডো	-13.0795
▁লেব	-13.0804
্ডা	-13.0829
▁উইজে	-13.0848
Lin	-13.0871
MS	-13.0958
pdat	-13.0974
▁কমি	-13.1038
সাইপ	-13.1061
ঁদ	-13.1078
ca	-13.1082
▁সমন্	-13.1091
্ষেত্রে	-13.1131
েন্টেশন	-13.1188
FA	-13.1191
▁প্রমা	-13.1193
esp	-13.1241
▁U	-13.1241
pos	-13.1313
াইপে	-13.1321
রাউ	-13.1406
তিত	-13.1426
▁মাল্ট	-13.1448
▁Do	-13.1515
েয়ে	-13.153
▁ফাস	-13.1548
▁মার্	-13.1564
loat	-13.1602
োগো	-13.163
িউল	-13.1642
▁প্রি	-13.1695
▁প্রস্থা	-13.1701
াড়	-13.1747
nest	-13.1803
▁গো	-13.1839
্প্রতি	-13.1858
যায়ী	-13.1863
az	-13.1869
▁আয়	-13.1869
▁বিলো	-13.1883
▁লো	-13.1889
বলি	-13.1913
বেশ	-13.2006
ant	-13.2054
ডির	-13.2057
োয়াই	-13.2062
TR	-13.2071
ong	-13.2128
কেট	-13.2174
▁হ্য	-13.2176
সংগতি	-13.2202
▁পো	-13.2202
সূচনা	-13.2217
টান	-13.2266
▁con	-13.2276
Gi	-13.2289
il	-13.2338
Ti	-13.2367
▁রেন	-13.239
সত	-13.2408
জে	-13.241
রুদ	-13.2422
Aut	-13.2563
রীক	-13.2627
ff	-13.2664
▁পরিবর্	-13.2666
▁acce	-13.2705
▁Ca	-13.2753
শে	-13.2806
PO	-13.2831
-_	-13.2896
টিপ	-13.2925
াকৃত	-13.2933
▁Jan	-13.2976
stdoutp	-13.3025
urs	-13.3041
তিব	-13.3069
ফিক	-13.31
▁"/	-13.3113
রাট	-13.3113
ইম	-13.318
কেশন	-13.3253
রিশ	-13.3268
▁করু	-13.3379
িপ	-13.3385
ru	-13.3385
zo	-13.3386
▁অ্যাপ	-13.3393
োবাই	-13.3417
ায়ে	-13.3435
us	-13.345
sou	-13.3472
▁s	-13.3487
por	-13.3567
ারো	-13.3791
ধিকার	-13.3796
শু	-13.3823
শা	-13.3843
▁দা	-13.3864
▁n	-13.3898
▁'.	-13.3923
দ্ধা	-13.3925
িমান	-13.4014
rob	-13.4037
বাস	-13.4059
▁পরিচয়ে	-13.407
▁ডির	-13.4123
্যান	-13.4133
োনা	-13.4175
নফি	-13.422
াচিত	-13.4283
ছিল	-13.429
সকেট	-13.4299
ইউনি	-13.4299
▁মূলে	-13.4323
রিয়া	-13.4351
নোবো	-13.4382
হণ	-13.4461
সংক্ষেপ	-13.4477
▁হে	-13.4489
াটি	-13.4494
ার্ক	-13.4494
মাসে	-13.4509
িতা	-13.4528
sis	-13.4607
ূর্ত	-13.4614
পো	-13.4675
িকিউ	-13.4738
.)	-13.4794
গাদ	-13.4884
Fol	-13.4961
wn	-13.4966
বিস	-13.502
▁Vo	-13.5079
াহা	-13.5084
car	-13.5195
▁কাল	-13.5219
pe	-13.5276
বিত	-13.5278
▁de	-13.5316
▁গ্রি	-13.5364
নাটি	-13.537
লুসি	-13.5419
alen	-13.5455
▁Li	-13.5479
কুয়া	-13.5527
েমো	-13.5679
ttes	-13.5716
াঙ্গ	-13.5718
ess	-13.5843
ডেকে	-13.5874
ব্রাউজারে	-13.5973
▁হাস	-13.6058
▁রিফ্	-13.6132
ডের	-13.6162
▁ছ	-13.6164
MAP	-13.6183
bra	-13.6277
-%	-13.6283
েইল	-13.6288
▁ওয়েবক্যা	-13.6343
▁দ্	-13.6377
হ্যা	-13.6439
্যার	-13.6452
নিয়	-13.6457
বশ	-13.6479
activ	-13.6479
ayName	-13.6618
eads	-13.6664
▁SV	-13.6707
ee	-13.6793
We	-13.6863
Fran	-13.6933
যাক	-13.6952
cept	-13.6955
টিক	-13.6968
াতের	-13.6985
নির্	-13.7015
সেরা	-13.7077
rj	-13.7198
edh	-13.7203
▁ওপ	-13.7229
্রাফিক	-13.7239
▁প্রতিবেশ	-13.7255
উল্	-13.7279
▁বিন্য	-13.7398
রিও	-13.7404
ste	-13.7416
ক্যালে	-13.7418
াক্সে	-13.7606
রায়	-13.7638
ামূল্যে	-13.7645
ুক্তকরণ	-13.7714
▁সিন	-13.7769
রকালে	-13.7786
ায্য	-13.7798
▁ইয়	-13.7851
▁গর	-13.7991
▁লিস	-13.7997
ক্সি	-13.8042
▁মাপক	-13.8051
TM	-13.8079
ুড়	-13.8147
ুমানি	-13.8202
UT	-13.8214
seri	-13.8237
েজ	-13.8317
vi	-13.8337
রফ	-13.8365
ন্টি	-13.8373
নিত	-13.8468
রাস	-13.8472
মিলি	-13.8504
ইয়া	-13.8507
ুটি	-13.8688
ম্পা	-13.871
▁নাক	-13.8725
▁তাক	-13.8905
ধার	-13.8978
দেয়	-13.9009
িষ	-13.9055
TI	-13.906
mc	-13.9161
▁রো	-13.9213
স্টা	-13.9303
▁থ	-13.933
ালা	-13.9571
▁সঠিকর	-13.9574
dd	-13.9605
BM	-13.9653
▁ইমপ	-13.9654
রোনা	-13.9715
াড়ি	-13.9752
ান্তর	-13.9761
▁নামান	-13.9809
sto	-14.001
টিম	-14.0012
bol	-14.0134
ঃ	-14.0151
“	-14.0152
ঞ	-14.0153
ৃ	-14.0154
াট	-14.0155
ৈ	-14.0155
