<unk>	0
<s>	0
</s>	0
▁	-3.7321
.	-3.82985
▁है	-3.88529
)	-3.89449
▁के	-3.95721
▁(_	-3.97036
s	-4.02229
▁में	-4.08485
▁को	-4.20905
▁नहीं	-4.29596
▁करें	-4.30117
▁%	-4.41781
:	-4.42947
े	-4.69058
▁से	-4.76461
,	-4.79281
▁लिए	-4.82783
ा	-4.92334
-	-5.02819
▁का	-5.05709
▁की	-5.06218
"	-5.19388
▁संदेश	-5.25886
▁कर	-5.28961
▁पर	-5.29796
▁आप	-5.3196
ी	-5.32779
ित	-5.3525
▁एक	-5.35403
▁इस	-5.39715
/	-5.44837
▁फ़ोल्डर	-5.45626
▁हैं	-5.48335
ई	-5.48766
ने	-5.57374
▁(	-5.58539
▁फ़ाइल	-5.63084
▁करने	-5.64573
▁रहा	-5.64769
▁"	-5.68474
▁सकता	-5.70365
'	-5.72236
▁नाम	-5.74305
▁सूची	-5.77022
र	-5.83508
▁सका	-5.84691
1	-5.86305
▁या	-5.87465
▁यह	-5.87759
0	-5.87917
▁और	-5.90255
2	-5.91219
ों	-5.916
▁किया	-5.95711
▁संपर्क	-5.96472
क्या	-5.97816
▁छवि	-5.98392
▁कार्य	-6.01898
▁क	-6.03186
▁रूप	-6.04001
▁सर्वर	-6.04037
▁त्रुटि	-6.04279
):	-6.05368
▁प्रयोग	-6.05731
▁कि	-6.07047
▁डिस्क	-6.09164
_	-6.09897
▁गया	-6.1023
▁डाक	-6.1088
▁हो	-6.11691
▁पता	-6.1226
?	-6.13783
▁'%	-6.15956
▁जा	-6.18708
▁विंडो	-6.19973
S	-6.20298
d	-6.20684
▁दिखाएँ	-6.25782
▁साथ	-6.28871
▁"%	-6.35982
▁कृपया	-6.37721
▁एवोल्यूशन	-6.39433
क	-6.4055
...	-6.41433
5	-6.41744
▁खाता	-6.42902
▁चाहत	-6.43949
▁पंचांग	-6.44072
▁नया	-6.45578
A	-6.45873
▁चयनित	-6.4591
8	-6.46007
ना	-6.47801
▁करता	-6.4989
▁चुनें	-6.5018
▁कुंजी	-6.51154
▁जब	-6.51819
▁मौजूद	-6.53231
▁सूचना	-6.54847
▁फाइल	-6.5758
▁लिये	-6.5766
▁करना	-6.59449
▁सभी	-6.59742
▁कूटशब्द	-6.60109
3	-6.61695
R	-6.62504
ता	-6.62521
▁न	-6.63883
F	-6.64207
▁जो	-6.64468
▁समय	-6.64931
▁फि	-6.66042
D	-6.66804
▁सक्रिय	-6.68442
▁ले	-6.68545
C	-6.68751
▁स्थिति	-6.70669
त	-6.72036
▁स्थान	-6.72174
▁विफल	-6.73309
▁अपन	-6.74363
▁आकार	-6.7437
न	-6.74656
▁उपयोग	-6.74919
▁दृश्य	-6.75247
▁विकल्प	-6.75386
▁आपक	-6.7883
▁प्रकार	-6.79431
▁मान	-6.79506
▁खोज	-6.79652
यदि	-6.79928
▁सहेजें	-6.81496
▁वीडियो	-6.82552
▁खाली	-6.82962
▁बना	-6.83183
▁लोड	-6.84784
e	-6.85388
▁पृष्ठ	-6.85543
t	-6.86059
▁हेतु	-6.86703
)...	-6.8689
▁the	-6.86901
▁प्रमाणपत्र	-6.87809
▁चाहिए	-6.88361
▁पहले	-6.88394
P	-6.89479
▁जोड़ें	-6.89494
▁खोलें	-6.90079
▁बनाएँ	-6.91173
िंग	-6.93506
▁निर्दिष्ट	-6.95239
▁द्वारा	-6.95276
▁जाएँ	-6.956
▁सेट	-6.96976
ं	-6.97159
M	-6.98187
▁खेल	-6.98685
▁तयशुदा	-6.99032
▁क्षेत्र	-7.02095
▁पाठ	-7.02197
▁व	-7.02729
▁अ	-7.03727
▁खोल	-7.038
▁सहेज	-7.04488
▁ज्ञापन	-7.05257
B	-7.06143
▁स्क्रीन	-7.07486
▁योग्य	-7.08731
T	-7.08886
▁कॉल	-7.09184
▁पुस्तिका	-7.09323
E	-7.09541
▁आरंभ	-7.09899
▁सकते	-7.10666
▁बाहर	-7.10681
▁निर्देशिका	-7.1077
▁बदलें	-7.1137
N	-7.1153
9	-7.11932
को	-7.1232
6	-7.12636
U	-7.13676
▁रंग	-7.14723
▁अभिलेख	-7.14865
▁विन्यास	-7.14916
▁नक़ल	-7.1561
a	-7.16174
4	-7.17709
n	-7.18394
▁मिटाएँ	-7.19276
▁जोड़	-7.19881
िसी	-7.20095
o	-7.21809
u	-7.22469
▁पट्टी	-7.22938
▁कमांड	-7.23121
▁रहे	-7.23307
▁लें	-7.23682
I	-7.23811
▁आयात	-7.24109
▁भेजें	-7.24303
▁मोड	-7.24836
L	-7.24916
▁मद	-7.2553
▁जिस	-7.25635
▁परियोजना	-7.26304
c	-7.2635
▁ध्वनि	-7.26491
▁प्रारूप	-7.26703
▁असफल	-7.26949
▁अमेरिक	-7.27114
▁क्लिक	-7.2714
▁उपयोक्ता	-7.27381
▁प्राप्त	-7.29504
▁ईमेल	-7.29657
▁हस्ताक्षर	-7.30329
▁वाल	-7.30675
▁जाने	-7.31214
%	-7.31861
▁दौरान	-7.32135
▁(%	-7.32211
▁ऑडियो	-7.32226
O	-7.32261
▁दें	-7.32264
▁आ	-7.32318
p	-7.32804
▁G	-7.33053
▁अवैध	-7.33178
पट्टी	-7.33185
▁पसंद	-7.33884
से	-7.3436
;	-7.34685
के	-7.3478
▁असमर्थ	-7.35249
▁सेटिंग	-7.3588
▁जाता	-7.36122
स	-7.36692
”	-7.3704
▁संख्या	-7.37477
▁लिखने	-7.37842
▁पूर्वावलोकन	-7.3786
▁दिखा	-7.38396
▁दिया	-7.3842
▁बैठक	-7.39632
▁`%	-7.40293
ल	-7.4066
▁प	-7.41105
i	-7.41668
▁बंद	-7.42048
▁सत्यापन	-7.42055
▁कम	-7.42151
▁संपादक	-7.43008
▁समर्थित	-7.43132
▁वि	-7.43713
▁तस्वीर	-7.43966
▁समाप्त	-7.43978
▁“%	-7.43991
▁संस्करण	-7.43999
▁कुछ	-7.44104
▁तो	-7.44106
▁पा	-7.46822
▁भेज	-7.47843
▁दिखायें	-7.47926
▁गलत	-7.48012
x	-7.48418
of	-7.4856
▁सीडी	-7.48608
▁अनुप्रयोग	-7.48874
▁आपका	-7.49175
▁अग	-7.49412
▁विधि	-7.49987
▁डीवीडी	-7.50258
▁उपलब्ध	-7.50968
▁-	-7.51137
▁लिख	-7.51466
▁वेब	-7.51556
▁a	-7.51929
f	-7.52857
▁कोशिश	-7.53059
▁अन्य	-7.53215
▁लिंक	-7.53521
▁बदल	-7.5356
▁अनुमति	-7.53622
▁संपादित	-7.54136
▁ऑफ़लाइन	-7.54201
▁गुण	-7.54899
▁ब्रैसेरो	-7.55203
▁टैब	-7.55267
▁विवरण	-7.56327
▁निम्न	-7.56352
▁संलग्नक	-7.56356
▁अज्ञात	-7.5644
ि	-7.5673
▁स्थानीय	-7.57436
ः	-7.57686
}	-7.58691
▁जांच	-7.59143
w	-7.59341
m	-7.59455
▁चिह्न	-7.59557
▁स	-7.60622
▁वर्तमान	-7.60838
▁केवल	-7.60924
▁गई	-7.61069
▁बत	-7.61634
H	-7.61652
▁मुलाकात	-7.61907
▁परिवर्तन	-7.6191
▁स्रोत	-7.61944
▁किस	-7.62087
ौर	-7.62407
▁सुरक्षित	-7.63088
▁रखें	-7.63101
रा	-7.63567
▁प्लगिन	-7.64248
▁ट्रैक	-7.6425
▁गए	-7.64284
▁नीचे	-7.64322
▁सदस्यता	-7.64394
▁आधार	-7.6441
नए	-7.64433
▁मिटा	-7.64759
▁होता	-7.64994
▁प्रसंग	-7.65435
▁हटाएँ	-7.6544
▁मदद	-7.6546
▁विषय	-7.65508
▁P	-7.65686
▁अधिक	-7.65697
▁रद्द	-7.66506
▁पूर्ण	-7.66951
▁सही	-7.6712
▁चयन	-7.67289
▁तिथि	-7.67896
▁समर्थन	-7.67905
▁निष्क्रिय	-7.69183
▁{	-7.69537
!	-7.69684
िक	-7.69745
▁बटन	-7.70335
▁भी	-7.7035
▁ने	-7.70365
▁शीर्षिका	-7.71622
▁एशिया	-7.7167
▁युक्ति	-7.71697
▁घटना	-7.72028
r	-7.72448
▁दा	-7.72907
▁फ़ाइलें	-7.73357
▁मिला	-7.73624
g	-7.73683
ो	-7.7383
▁ही	-7.73972
▁था	-7.74075
▁प्रोग्राम	-7.74089
▁देखें	-7.74503
▁समूह	-7.75067
▁अद्यतन	-7.75477
▁डाउनलोड	-7.75477
▁लिखें	-7.75597
▁चौड़ाई	-7.75642
र्फ	-7.76013
▁सि	-7.76344
व	-7.77077
▁प्रारंभ	-7.77106
▁पहुँच	-7.77337
प	-7.77436
▁हटा	-7.78103
▁दस्तावेज	-7.78183
▁--	-7.78627
:%	-7.79197
▁खोजें	-7.79703
ISO	-7.80448
]	-7.80895
AR	-7.81335
▁होम	-7.81364
▁ब	-7.81626
l	-7.8166
या	-7.81842
▁पास	-7.82302
खिल	-7.82308
▁फोल्डर	-7.82386
▁वस्तु	-7.82725
▁लॉग	-7.83199
▁जाँच	-7.83393
▁अप	-7.83414
▁म	-7.83916
▁ग	-7.84386
▁इसके	-7.85161
▁स्तर	-7.85247
▁अंतिम	-7.85282
▁समा	-7.85336
▁जवाब	-7.8543
▁मेल	-7.85948
▁ऊपर	-7.86694
▁इतिहास	-7.88195
▁स्वतः	-7.88198
▁यहाँ	-7.8822
▁अधिसूचना	-7.88228
▁आंकड़ा	-7.88388
ए	-7.8851
▁त	-7.88662
▁बग	-7.89058
▁S	-7.89072
ओं	-7.89673
म	-7.8974
▁जरूरी	-7.89919
▁शुरू	-7.91243
▁अक्षम	-7.91248
▁क्य	-7.91313
▁मत	-7.91803
b	-7.91918
▁[	-7.92135
▁पंक्ति	-7.925
▁फ़ॉन्ट	-7.92784
▁कच	-7.92798
▁होगा	-7.92866
▁जाएगा	-7.92895
▁प्रयुक्त	-7.93153
ते	-7.93363
▁भेजा	-7.94107
▁पथ	-7.94462
में	-7.94606
V	-7.94623
▁सं	-7.94815
▁मुद्र	-7.95112
ण	-7.95437
्स	-7.95717
▁संक्रिया	-7.96018
or	-7.96132
format	-7.96138
▁URI	-7.96282
▁ID	-7.96358
▁वापस	-7.97151
▁संजाल	-7.97199
▁बार	-7.97364
▁बाद	-7.97661
▁ढूंढें	-7.97678
▁सत्र	-7.97704
▁सकती	-7.97742
▁जरूरत	-7.97787
▁देता	-7.97877
▁फ़िल्टर	-7.97938
▁आई	-7.97995
▁गोपन	-7.98134
Y	-7.98315
▁दूसर	-7.98516
▁पाने	-7.99128
▁दिखान	-7.99173
▁चेतावनी	-7.99321
▁प्राप्तकर्ता	-7.99339
▁जांचें	-7.99416
▁प्र	-8.00567
uni	-8.00651
▁रिक्त	-8.00878
▁अधिकतम	-8.01017
▁हुई	-8.01088
▁वैध	-8.01092
▁पाया	-8.01278
▁चाल	-8.01386
▁दिन	-8.0186
▁सार	-8.02152
▁उपकरण	-8.02732
▁प्रदर्शित	-8.02742
▁होन	-8.031
▁शा	-8.03283
▁तंत्र	-8.03516
िए	-8.04141
k	-8.04156
7	-8.04441
▁पसंदीदा	-8.04489
▁करेगा	-8.04626
▁शीर्षक	-8.04881
ज	-8.05184
▁दस्तावेज़	-8.06349
▁सक्षम	-8.06458
▁क्रिया	-8.06715
v	-8.0675
▁तक	-8.06944
▁कनेक्शन	-8.08091
▁यूरोप	-8.08193
▁संपादन	-8.08223
▁डाटा	-8.0828
▁जारी	-8.08284
मिल	-8.08342
▁सामान्य	-8.08424
▁रद्दी	-8.08535
▁to	-8.08888
कि	-8.0899
का	-8.09644
W	-8.09854
symbol	-8.09896
▁संवाद	-8.09939
▁ऑफलाइन	-8.09944
▁अफ्रीका	-8.09956
▁विश्लेषण	-8.10007
▁प्रॉक्सी	-8.10008
▁भेजन	-8.10992
▁जमा	-8.11249
y	-8.11333
▁जोड़न	-8.1158
्या	-8.11792
▁चैट	-8.11819
▁पुस्तक	-8.11832
▁IMAP	-8.11893
▁सारणी	-8.1209
पूर्व	-8.1213
▁इन	-8.12269
जाना	-8.1292
▁फ	-8.13099
▁C	-8.13654
New	-8.13708
▁आँकड़	-8.13748
▁सहायक	-8.13748
▁License	-8.13752
▁आग्रह	-8.13778
▁टाइप	-8.13885
था	-8.14103
ubli	-8.14192
▁निर्म	-8.14369
▁देख	-8.15002
▁सप्ताह	-8.1571
▁पृष्ठभूमि	-8.15715
▁मनपसंद	-8.15778
▁"{	-8.1578
यों	-8.15887
▁पूरा	-8.15969
▁जुड़	-8.16201
वां	-8.16392
}"	-8.16656
▁चुन	-8.16742
▁प्रशा	-8.17652
▁अनुक्रिया	-8.17715
▁POP	-8.17905
▁बर्न	-8.17985
▁अगला	-8.18072
▁CD	-8.18131
ब	-8.19519
▁फ्लैग	-8.19715
▁दूरस्थ	-8.19751
▁श्रेणी	-8.19766
▁निर्धार	-8.19995
▁संग्रह	-8.20148
ायी	-8.20339
▁कारण	-8.20483
G	-8.20957
▁बैकअप	-8.21832
▁मूल्य	-8.21838
▁एंपेथी	-8.21905
▁छुपाएँ	-8.22135
सी	-8.2255
▁सम	-8.22624
▁मानक	-8.22696
यी	-8.23291
▁द	-8.23358
▁or	-8.23585
▁प्रक्रिया	-8.2397
▁सफलता	-8.23989
▁जायेगा	-8.24005
▁हुआ	-8.2408
▁लागू	-8.24104
▁निजी	-8.24113
▁for	-8.24813
▁प्रति	-8.25464
▁सा	-8.2592
नियत	-8.26085
▁आउटपुट	-8.26134
▁रिकार्ड	-8.26137
▁रिपोर्ट	-8.26137
▁LDAP	-8.26203
ट	-8.26612
▁बिना	-8.28375
▁दी	-8.2842
▁तत्व	-8.28426
▁संस्थाप	-8.28463
Id	-8.28688
निश्चि	-8.28941
इसे	-8.29109
▁उस	-8.29144
▁करते	-8.29347
▁रख	-8.29601
▁H	-8.30156
किन	-8.30178
▁अलग	-8.30416
गाडू	-8.30588
▁टॉगल	-8.30623
▁स्ट्रिंग	-8.3063
▁चाहेंगे	-8.3063
▁पासवर्ड	-8.3063
▁डालें	-8.30637
▁स्कीमा	-8.30705
▁प्रतीक	-8.30776
▁औजार	-8.30803
▁बड़ा	-8.30873
डियो	-8.31596
▁फिल्टर	-8.31597
की	-8.31638
(	-8.3183
ीय	-8.3192
K	-8.32013
स्त	-8.32723
शित	-8.32754
@	-8.32913
▁~	-8.32916
▁शैली	-8.32948
▁कैश	-8.32966
▁नियंत्रण	-8.32968
कर	-8.33003
▁प्रबंधक	-8.33034
▁गनोम	-8.3311
▁and	-8.33114
▁कॉपी	-8.33124
▁कड़ी	-8.33511
▁प्रेषक	-8.33723
▁प्रतिलिप	-8.33808
▁(.	-8.34185
▁ऐस	-8.34418
ें	-8.35311
▁स्तंभ	-8.35331
▁मुख्य	-8.35331
▁इनपुट	-8.35331
▁एकिगा	-8.35331
▁क्लिपबोर्ड	-8.35337
▁अप्रत्या	-8.35338
▁प्रविष्टि	-8.35347
▁तर्क	-8.35355
▁पुनः	-8.35406
▁URL	-8.35489
▁it	-8.35773
=	-8.36341
▁बहु	-8.36538
▁रखन	-8.3706
Q	-8.37074
भी	-8.37307
▁दो	-8.3732
eneral	-8.37737
▁मेनू	-8.37769
▁GNOME	-8.37769
▁वरीयताएँ	-8.37779
पश	-8.37807
▁सेवा	-8.38497
▁X	-8.38848
com	-8.39501
▁is	-8.39802
▁अंत	-8.39835
▁स्वचालित	-8.40273
▁डेलिगेट	-8.4028
▁सामग्री	-8.40291
▁निकालें	-8.40302
▁जानकारी	-8.40314
▁बन्द	-8.40438
▁गैर	-8.4044
▁कक्ष	-8.40475
मय	-8.40618
▁प्रेषित	-8.40897
▁साफ	-8.41411
▁काल	-8.41717
▁उन	-8.4211
▁एव	-8.42316
▁विस्तार	-8.4257
▁उपस्थित	-8.42746
▁ठीक	-8.42826
▁हमेशा	-8.42832
▁सारांश	-8.42835
▁आवश्यक	-8.42835
▁छोड़ें	-8.42882
▁with	-8.43373
्रैश	-8.43512
▁खोलन	-8.43642
▁MA	-8.4443
▁पुरान	-8.44547
च	-8.44603
nit	-8.44957
▁संकेत	-8.45289
▁तैयार	-8.45463
▁छापें	-8.45518
▁थी	-8.45535
▁लॉगिन	-8.456
य	-8.45714
▁मिनट	-8.4602
▁अब	-8.46118
▁एक्स	-8.46735
▁पढ़	-8.46794
ाहित	-8.47782
▁बारे	-8.47884
▁स्कैन	-8.48077
▁अति	-8.48106
▁भाषा	-8.48158
▁बीच	-8.48162
▁बैकेंड	-8.48168
▁डेस्कटॉप	-8.48169
▁अनुस्मारक	-8.4817
▁in	-8.4818
▁सत्यापित	-8.48181
▁प्रकाशित	-8.48182
▁ड्राइव	-8.48185
▁गति	-8.48199
▁ब्राउज़र	-8.48261
▁जाँचें	-8.48269
mac	-8.48935
मेल	-8.49235
▁'	-8.49336
▁बजाय	-8.49857
ीकरण	-8.49911
h	-8.50332
▁दे	-8.50472
ेयर	-8.50495
▁XML	-8.50936
▁अनुसार	-8.50953
▁बजाएँ	-8.50958
▁खाँचा	-8.50975
▁घटक	-8.50999
UT	-8.51049
▁बदले	-8.51089
▁प्रदर्शन	-8.51141
▁आगे	-8.51213
▁ताज	-8.5129
▁अभ	-8.51321
▁मे	-8.51444
▁you	-8.51524
▁सेटअप	-8.51767
▁जान	-8.51811
at	-8.52165
▁A	-8.52245
विनि	-8.52449
▁व्यस्त	-8.53745
▁संदर्भ	-8.53801
▁तरह	-8.53809
▁be	-8.53824
▁माउस	-8.53885
नी	-8.54283
▁सकी	-8.54755
▁GN	-8.5486
▁विन्य	-8.55045
ंत	-8.55046
▁असमर्थित	-8.55062
▁चुने	-8.55243
▁बनान	-8.55306
▁आने	-8.558
▁ha	-8.55901
▁लिखा	-8.56041
▁कोड	-8.56046
▁अस्था	-8.56178
%%	-8.5618
▁कार्ड	-8.56629
▁क्लाइंट	-8.56742
▁अंतर्वस्तु	-8.56745
ाएँ	-8.56776
▁ह	-8.56796
▁cdr	-8.56833
▁अन	-8.56851
▁लेबल	-8.56864
▁वाक	-8.5689
▁छोटा	-8.56916
याद	-8.57134
▁लिया	-8.5718
▁क्षैतिज	-8.57471
▁सब	-8.57683
पर	-8.57816
▁कनेक्ट	-8.58369
ed	-8.59391
तार	-8.59581
▁संभव	-8.59633
▁जमावट	-8.59768
▁प्रभाव	-8.59773
▁चीनी	-8.59775
▁उपयोक्तानाम	-8.59848
▁पिछला	-8.6049
▁सिस्टम	-8.60528
▁हों	-8.60607
is	-8.60864
▁चुना	-8.61287
▁विलोप	-8.61309
▁तब	-8.61565
▁हाल	-8.62537
▁वर्ण	-8.62658
निश्च	-8.62785
▁दहला	-8.6289
▁वार्तालाप	-8.62897
▁खिसकाएँ	-8.62899
▁चालू	-8.62905
▁अवधि	-8.63004
▁समाप्ति	-8.63295
▁डेटा	-8.63465
}'	-8.63755
▁रह	-8.63933
▁पोर्ट	-8.63989
▁वाला	-8.65306
if	-8.65634
व्यस्त	-8.65932
▁ऊंचाई	-8.66117
▁उपयोगकर्ता	-8.66128
▁हुए	-8.66138
▁अनुमान	-8.66152
▁देगा	-8.6616
▁उन्हे	-8.66181
▁जोड़ा	-8.665
▁लॉक	-8.6656
▁ज	-8.66613
लिखित	-8.66935
▁फलक	-8.66997
▁अव	-8.671
▁स्व	-8.67119
▁नय	-8.67513
▁ल	-8.6755
ती	-8.68206
▁/	-8.68286
▁चल	-8.68311
▁जरूर	-8.68809
▁काम	-8.69078
ला	-8.69302
▁स्वीकार	-8.69396
HTML	-8.69422
▁प्लगइन	-8.69424
▁'{	-8.69437
▁साझा	-8.69447
▁डिबग	-8.69447
▁समस्या	-8.69451
▁संलग्न	-8.69476
▁उपस्थिति	-8.69571
▁रोकें	-8.69597
▁ज्यादा	-8.69681
▁शब्दकूट	-8.69682
▁खाते	-8.69762
▁m	-8.70053
▁अस्थ	-8.70102
▁सीमा	-8.70181
▁छोड़	-8.71057
▁पिछल	-8.7115
ह	-8.7121
J	-8.71329
▁औ	-8.72533
योज	-8.72589
▁अमान्य	-8.72904
▁th	-8.72921
Free	-8.72965
▁मुक्त	-8.72971
://	-8.72996
▁अग्रेषित	-8.73017
▁चित्र	-8.73155
▁चि	-8.73615
▁अंक	-8.73702
▁फोन	-8.7381
▁F	-8.74614
▁पढ़न	-8.7592
▁रखत	-8.76231
IBM	-8.76442
▁वरीयता	-8.76467
चिह्न	-8.76468
▁गंतव्य	-8.76468
▁लाइसेंस	-8.7647
▁प्रोटोकॉल	-8.76471
▁पॉपअप	-8.76472
▁दर्ज	-8.76472
▁ग्नोम	-8.76476
▁निवेदित	-8.76501
▁होगी	-8.7651
▁साइट	-8.76519
▁जाएगी	-8.76524
▁भरें	-8.7654
रिक्त	-8.76625
▁नोट	-8.76656
कैमरा	-8.76797
▁हिस्सा	-8.76834
▁उदाहरण	-8.76842
▁उपभोक्ता	-8.76845
पी	-8.76865
परिभाषित	-8.77059
▁जैसे	-8.77551
▁उत्तर	-8.77993
▁पूर्व	-8.78032
्य	-8.78826
▁पहचान	-8.79214
▁डिफ़ॉल्ट	-8.80174
▁Foundation	-8.80175
▁ईंट	-8.8019
▁घर	-8.80212
▁स्वीकारें	-8.80237
oogle	-8.80296
▁ऑनलाइन	-8.8043
▁सुरक्षा	-8.80438
None	-8.80464
टा	-8.805
ड़ी	-8.80582
लॉन्	-8.80596
ing	-8.80701
▁प्रबंध	-8.80719
लाइन	-8.80748
oftware	-8.80923
▁_	-8.81058
शा	-8.81083
ाइप	-8.8173
▁दोष	-8.82392
▁re	-8.82695
▁श्रोत	-8.83209
ly	-8.83259
BA	-8.83277
▁नियम	-8.83652
▁भंडार	-8.83815
स्थापित	-8.839
▁जैबर	-8.84012
▁परिणाम	-8.84016
▁प्रयोक्ता	-8.84018
▁मेन्यू	-8.84018
▁फ्रेम	-8.84018
▁स्टार्ट	-8.84019
▁MiB	-8.84022
▁बाइंडिंग	-8.84034
ेड	-8.84044
▁कुंजीपटल	-8.84104
▁बिंब	-8.84142
▁वीकार्ड	-8.8415
खंड	-8.84506
ंकेति	-8.8459
▁समान	-8.84592
▁गीत	-8.8461
▁कार्यालय	-8.84839
▁भिन्न	-8.85077
▁लड़ी	-8.85229
▁मा	-8.85286
▁कैलेंडर	-8.85841
▁इ	-8.86052
▁ढूंढ	-8.86054
▁विलोपि	-8.86137
देख	-8.86469
▁W	-8.86663
▁समर्थ	-8.87539
हाँ	-8.87598
▁संबंध	-8.87643
▁शीर्ष	-8.87909
▁शब्द	-8.87957
▁अंदर	-8.87992
▁खत्म	-8.87992
▁बजान	-8.87995
▁स्पूल	-8.88013
▁बादशाह	-8.88015
▁वर्तनी	-8.8802
▁उन्नत	-8.88053
ww	-8.88076
▁विशेषता	-8.88082
▁थीम	-8.88089
▁काटें	-8.88094
▁साइरिलिक	-8.88149
▁आवाज	-8.88173
▁गुप्त	-8.88289
▁version	-8.88291
▁पिक्सेल	-8.88294
▁जाती	-8.88384
▁प्रमाण	-8.88412
▁HTTP	-8.88571
हित	-8.88584
▁बनाया	-8.88743
▁सहेजन	-8.8889
्फ	-8.89195
▁वह	-8.89256
ANT	-8.894
MS	-8.89589
ार	-8.89736
▁IC	-8.89858
▁ई	-8.89929
▁दूसरा	-8.89968
ंकि	-8.90015
▁देन	-8.90225
बार	-8.90712
फी	-8.91195
ति	-8.91586
डाक	-8.92121
Permissions	-8.92158
▁ऊँचाई	-8.92158
▁गूगल	-8.92158
▁स्क्रॉल	-8.92182
▁पैरामीटर	-8.92182
▁प्राक्सी	-8.92182
▁रोबॉट्स	-8.92184
▁सादा	-8.92209
eg	-8.92301
▁मध्य	-8.92315
िर	-8.92406
".	-8.92408
▁आरंभिक	-8.92473
▁वर्णन	-8.92475
श	-8.92603
▁SSL	-8.92608
▁not	-8.92615
▁सरल	-8.92644
▁चुक	-8.92821
PI	-8.92941
▁श्रोता	-8.93062
▁हल	-8.93563
▁ऐसे	-8.93771
िन	-8.93928
Cat	-8.94009
TP	-8.94364
▁DVD	-8.94423
▁स्थापित	-8.94865
▁इनक	-8.95591
yName	-8.96129
़ा	-8.96239
▁वर्ग	-8.96451
▁पेज	-8.9649
Meeting	-8.96506
▁बड्डी	-8.96506
▁स्वयं	-8.96506
▁चिपकाएँ	-8.96507
▁मौसम	-8.96507
▁प्रश्न	-8.96507
▁छपाई	-8.96507
▁समाचार	-8.96515
▁डाकपेटी	-8.96521
out	-8.96546
▁जबतक	-8.9656
▁स्वीकृत	-8.96573
▁होस्ट	-8.96671
ेनी	-8.96742
नाम	-8.96747
▁संबंधन	-8.96814
▁संकेतक	-8.96834
windows	-8.97056
▁दिखाय	-8.97492
▁सेकेंड	-8.97866
▁ए	-8.98101
▁सिर	-8.99255
it	-8.99316
▁जी	-8.9932
▁चला	-8.99343
▁ला	-9.00524
्टोर	-9.00925
▁कुंजीपट	-9.00984
▁डैशर	-9.01052
▁मौज़ूद	-9.01052
▁संसाधन	-9.01052
▁सलाह	-9.01052
▁निर्माण	-9.01052
gnome	-9.01054
▁उपनाम	-9.01066
▁अद्यतनीकृत	-9.01073
▁सीध	-9.01082
▁निकाल	-9.01094
▁गणना	-9.0112
▁फ़ॉन्ट्स	-9.01129
▁दूर	-9.01167
▁प्रबंधन	-9.01182
▁डिरेक्ट्री	-9.01222
▁पटल	-9.01334
▁आज	-9.01454
़	-9.01582
IT	-9.01693
रण	-9.01736
▁अनु	-9.02006
▁वास्तव	-9.02041
▁अग्रसारित	-9.02048
Windows	-9.02245
▁c	-9.02493
▁कुल	-9.02774
lu	-9.02837
▁स्क्रिप्ट	-9.03022
▁मिटाने	-9.03087
▁मिल	-9.03562
▁चीज	-9.04039
▁करे	-9.05059
सक	-9.05458
ve	-9.05635
▁एनकोडिंग	-9.05789
▁मेजबान	-9.0579
▁पहुंच	-9.05812
▁प्रतीक्षा	-9.05812
▁खराब	-9.05814
▁लघु	-9.05814
▁घुसाएँ	-9.05816
▁न्यूनतम	-9.05817
▁प्रदर्शक	-9.05823
Imp	-9.05825
▁सूट	-9.05836
▁जायेगी	-9.05861
▁यूरोपीय	-9.05869
▁अगल	-9.06077
by	-9.06198
▁आईडी	-9.06272
मिंग	-9.06341
OR	-9.06635
▁घंटे	-9.06707
▁देखन	-9.06806
सीडी	-9.07099
बद्ध	-9.07153
▁सिमुलेशन	-9.07205
▁छुप	-9.07218
▁use	-9.07591
▁ब्रे	-9.08229
▁हर	-9.08461
री	-9.09125
▁बनाई	-9.09174
ड	-9.10732
Show	-9.10814
▁अनुपलब्ध	-9.10814
▁रोस्टर	-9.10814
▁छूट	-9.10814
▁रीडर	-9.10814
dao	-9.10816
▁लेखक	-9.10816
▁उपयुक्त	-9.10817
▁दबाएँ	-9.1082
▁अनजान	-9.1082
▁प्रस्थिति	-9.10827
▁पठित	-9.10872
आउट	-9.10885
▁सॉफ्ट	-9.10893
▁दिखाएं	-9.10896
▁ताला	-9.10964
▁बांट	-9.10982
कर्ता	-9.10986
▁कॉन्फ़िगरेशन	-9.10997
▁महत्वपूर्ण	-9.10997
▁मसौदा	-9.11006
▁संगठन	-9.1101
रपट	-9.11034
▁मैं	-9.11047
▁प्राधिकार	-9.11165
▁जंक	-9.11166
▁खिसकाने	-9.11206
▁w	-9.11464
/%	-9.11684
▁स्थ	-9.11848
▁Yahoo	-9.11902
▁अगले	-9.11904
Mac	-9.11926
▁लेखन	-9.12475
MIME	-9.12669
ंट	-9.129
बॉक्स	-9.12986
iCal	-9.13081
▁पान	-9.13224
्ट	-9.13304
ाप्त	-9.13326
लिंग	-9.13363
▁गय	-9.14156
▁रि	-9.14342
ात्मक	-9.14559
▁छाप	-9.1487
यन	-9.15095
▁खिसका	-9.15491
ष्ट	-9.15707
▁उपयोगी	-9.15742
▁उत्प्रवास	-9.15893
▁नियंत्र	-9.15944
िया	-9.15953
▁एपीफ	-9.16075
▁आवृत्ति	-9.16077
▁सार्वजनिक	-9.16077
▁प्रतिशत	-9.16077
▁बाजू	-9.16077
▁अधिभार	-9.16077
▁अपरिचित	-9.16079
help	-9.1608
TNE	-9.16082
धान	-9.16099
▁छवियाँ	-9.16139
▁जोड़ेगा	-9.16151
सूची	-9.1616
▁पूछें	-9.16183
▁तुल्यकालन	-9.16191
▁लाल	-9.16224
▁ताश	-9.16266
▁संपन्न	-9.16279
▁आउटलुक	-9.16451
▁लंबवत	-9.16643
▁शेष	-9.16808
http	-9.16897
▁h	-9.16912
▁x	-9.17051
▁आयातक	-9.17456
▁ISO	-9.17933
▁मिटान	-9.17976
▁time	-9.18864
mail	-9.19496
▁संस्थापन	-9.19511
मा	-9.2042
एस	-9.21441
▁क्रम	-9.21571
should	-9.21632
▁STUN	-9.21632
▁डिवाइस	-9.21632
▁फिंगरप्रिंट	-9.21632
▁वर्षगांठ	-9.21632
▁शॉर्टकट	-9.21632
▁सहायता	-9.21632
▁ज़ूम	-9.21632
▁पुनर्नामकरण	-9.21633
▁फोटो	-9.21633
File	-9.21638
▁अवस्थिति	-9.21639
▁हस्तांतरण	-9.2164
▁मॉडल	-9.21641
द्वीप	-9.21648
▁कार्यक्रम	-9.21651
▁चलाएँ	-9.21678
मीडिया	-9.21743
▁मूल	-9.218
lot	-9.21809
हें	-9.21885
▁SM	-9.21968
▁निकल	-9.21996
▁सहभागी	-9.22022
▁श्र	-9.22061
▁भाग	-9.22076
ेषण	-9.2221
▁पीछे	-9.2225
रे	-9.22579
्	-9.22656
Inc	-9.22727
ri	-9.22815
z	-9.23449
ge	-9.23567
टी	-9.24052
ter	-9.24224
ुम	-9.2457
th	-9.25082
कल	-9.25238
▁D	-9.25706
▁पूछ	-9.2577
Conf	-9.25809
व्य	-9.26083
▁एक्चें	-9.26315
opy	-9.26519
▁वे	-9.26986
▁एलार्म	-9.27515
▁जगह	-9.27515
▁तत्काल	-9.27515
▁हूँ	-9.27515
▁फॉन्ट	-9.27523
▁receive	-9.27527
▁रूट	-9.27541
▁अंतराल	-9.27557
▁पॉप	-9.27561
वैकल्पिक	-9.27588
▁मौन	-9.2761
text	-9.27644
▁अपरिभाषित	-9.27675
▁जन्मदिन	-9.27713
▁प्लेयर	-9.27779
▁त्वर	-9.27829
डेवलपर	-9.27875
HO	-9.27888
▁मूलभूत	-9.27924
▁भर	-9.27951
▁धीमा	-9.28045
▁कॉलम	-9.28096
any	-9.28123
▁कनेक्टर	-9.28153
▁बिट	-9.282
▁टॉप	-9.28382
▁हटान	-9.2859
▁लोगो	-9.2873
▁लाय	-9.28742
ty	-9.29531
▁चलान	-9.29541
▁पूर	-9.29558
long	-9.29676
▁name	-9.29736
▁सुनिश्चि	-9.29805
▁B	-9.29966
nl	-9.30007
cus	-9.30085
▁स्था	-9.30107
इन	-9.30499
ेगा	-9.30581
स्ट	-9.31023
ियन	-9.31367
▁hi	-9.31418
कैलेंडर	-9.31487
ासिक	-9.31518
▁बढ़	-9.31549
▁पार	-9.31565
▁option	-9.32106
j	-9.33177
▁जोड़े	-9.33526
▁क्षमता	-9.33765
▁फीचर	-9.33765
▁अनुमतियाँ	-9.33781
▁संभाव	-9.33784
▁परिवर्तित	-9.33785
▁छाँटें	-9.3379
page	-9.33818
mbox	-9.33873
विश्वास	-9.33876
▁यूआरएल	-9.33969
▁कंपोजर	-9.33982
▁दोनों	-9.34001
▁भरने	-9.34071
▁पायें	-9.34124
▁पठनीय	-9.34142
▁बनाए	-9.34203
शन	-9.34208
gconfd	-9.35007
ion	-9.35069
UR	-9.35273
▁सहेजे	-9.35384
SV	-9.35489
▁an	-9.35775
्यों	-9.35833
▁पिछले	-9.35944
▁प्रा	-9.36041
▁हुक	-9.36201
SS	-9.36638
DVD	-9.36893
time	-9.37118
ke	-9.37192
द	-9.37268
▁कार्	-9.3727
▁बे	-9.37277
तर	-9.3743
▁दर	-9.37634
).	-9.37841
ली	-9.38206
AB	-9.38402
▁program	-9.38501
ीसवां	-9.38672
chan	-9.38816
जे	-9.39032
प्ट	-9.39075
day	-9.39156
NU	-9.39232
▁MS	-9.39572
ope	-9.39739
▁किनार	-9.39813
▁जैस	-9.40139
▁सदस्य	-9.4029
ंग	-9.40293
ther	-9.40314
▁can	-9.4036
▁कै	-9.40418
ध्यम	-9.40421
▁Empathy	-9.40431
▁अंगुली	-9.40431
▁टेलिपोर्ट	-9.40431
▁डोमेन	-9.40431
▁यूनिकोड	-9.40431
▁वैश्विक	-9.40431
▁साप्ताहिक	-9.40431
▁औज़ार	-9.40431
▁मुझ	-9.40432
▁हार्ड	-9.40441
▁चाहिये	-9.40442
▁implie	-9.40444
▁फुल	-9.40445
▁बर्स्ट	-9.40462
▁USA	-9.40469
▁कोरियाई	-9.40475
▁इनलाइन	-9.40481
ext	-9.40491
▁अक्षर	-9.40498
▁जायें	-9.40549
▁परिवर्धित	-9.40551
▁बीप	-9.40674
▁जिप	-9.40697
▁जनक	-9.40763
▁भूल	-9.40824
▁विंडोज़	-9.4084
ेश	-9.40841
TI	-9.40977
FI	-9.41011
▁तीसर	-9.4109
Disc	-9.41092
▁प्राथमिकता	-9.41117
▁दोहरा	-9.41157
▁नोड	-9.41381
▁भ	-9.41461
▁वी	-9.41563
▁तुल्यकालि	-9.41576
▁संत	-9.41608
कार्य	-9.41638
▁type	-9.41835
▁देखना	-9.42186
▁आउट	-9.42234
▁लेन	-9.42456
क्ष	-9.4257
▁"-	-9.4263
▁जन	-9.42695
कृत	-9.42746
▁Yo	-9.42771
तः	-9.42781
▁चुनत	-9.44313
▁र	-9.44609
▁सुनिश्च	-9.44863
अप	-9.44917
छ	-9.44991
all	-9.45022
▁MIME	-9.45056
rran	-9.45594
▁...	-9.45634
IC	-9.45693
गा	-9.46073
▁उप	-9.46551
इस	-9.46643
ful	-9.47046
▁ei	-9.47293
ha	-9.47366
▁अधिसूच	-9.47423
▁स्टेट	-9.47443
▁जाएं	-9.47473
▁प्लग	-9.47544
▁व्यक्ति	-9.47571
NONE	-9.47574
immed	-9.47574
▁भविष्य	-9.47574
▁यांत्रिकी	-9.47574
▁शून्य	-9.47574
▁संसूचक	-9.47574
▁हाइलाइट	-9.47574
▁हिब्रू	-9.47574
▁पदक्रम	-9.47574
▁बातचीत	-9.47574
▁सुसंगत	-9.47575
▁घुमाएँ	-9.47577
▁पजल	-9.47577
▁इकाई	-9.47577
▁Bugzilla	-9.47578
▁व्यक्तिगत	-9.47578
▁Ekiga	-9.47579
▁ऑपरेशन	-9.47579
द्वितीय	-9.4758
▁UID	-9.47584
नतम	-9.47584
▁वेबकैम	-9.47585
▁मनाही	-9.47592
▁अनुरूप	-9.47605
MER	-9.47607
▁खाका	-9.47612
tar	-9.47641
org	-9.47787
▁हटायें	-9.47817
▁लंबा	-9.47819
फास्ट	-9.47825
▁खिलाड़ी	-9.47836
▁पत्ता	-9.47913
▁लंबाई	-9.47985
▁PGP	-9.4805
▁free	-9.48062
ज़	-9.48078
डी	-9.4808
▁दाहिने	-9.48181
UL	-9.48843
▁सूचि	-9.48961
iso	-9.49064
▁करके	-9.49226
▁The	-9.49265
▁बचा	-9.49414
SE	-9.49606
▁bug	-9.50233
▁लिखन	-9.50243
▁distribute	-9.50245
▁दिवस	-9.50418
पंचांग	-9.50477
▁उ	-9.50494
जी	-9.50698
रूप	-9.50867
ails	-9.50966
▁तेज	-9.51003
▁सकेग	-9.5101
▁भार	-9.51499
तंत्र	-9.51537
लिंक	-9.51748
options	-9.51792
OP	-9.52352
ग	-9.52468
▁p	-9.52542
ीटिंग	-9.52547
▁SI	-9.5267
▁L	-9.52714
▁देश	-9.52754
ord	-9.52783
ये	-9.5291
क्यो	-9.53183
वी	-9.53325
▁प्रो	-9.53333
▁AI	-9.53799
▁इन्	-9.54109
▁खंड	-9.54235
▁हिस्स	-9.5447
mm	-9.54759
det	-9.54928
lin	-9.54995
ll	-9.55021
▁स्लाइड	-9.55038
ाइज	-9.55116
▁even	-9.55159
▁पुनर्प्राप्त	-9.55171
search	-9.55266
▁Image	-9.55266
Ctrl	-9.55267
▁इंटरनेट	-9.55267
▁चैनल	-9.55271
▁अधिष्ठाप	-9.55272
▁सॉकेट	-9.55274
▁पूर्णांक	-9.55277
game	-9.5528
▁फॉर्म	-9.55287
▁बेमेल	-9.55288
▁आमंत्रण	-9.55299
▁भूमि	-9.55303
▁वस्तुएँ	-9.55309
▁आवरण	-9.55311
Date	-9.55316
▁भूमिका	-9.55331
▁गुम	-9.55335
▁खास	-9.5534
▁कोष्ठ	-9.55358
▁स्वागत	-9.55358
▁but	-9.55358
▁नही	-9.55371
▁परीक्षण	-9.55376
▁software	-9.5538
▁दस्ती	-9.55498
▁दिनांक	-9.55512
▁स्वीकार्य	-9.55521
फ़ोल्डर	-9.55526
▁लक्ष्य	-9.55527
▁गतिशील	-9.55551
▁समयक्षेत्र	-9.55592
ियाँ	-9.55595
▁एटी	-9.55636
▁string	-9.55814
CH	-9.55984
▁समझा	-9.56087
▁मान्य	-9.56092
▁खेलें	-9.56099
▁समझ	-9.56229
ART	-9.56309
PO	-9.56402
सेट	-9.56566
लिक	-9.56774
ton	-9.56879
▁Bo	-9.57257
▁मना	-9.57261
▁AN	-9.57387
SO	-9.57995
टिंग	-9.58277
▁बता	-9.58291
वा	-9.58317
ON	-9.58608
ले	-9.59009
स्क्रीन	-9.59125
▁आयातित	-9.59224
net	-9.59489
बैठक	-9.59556
टिक	-9.59584
फिल्टर	-9.59887
स्क्रिप्ट	-9.6001
▁हु	-9.60059
▁मिटाए	-9.60857
वर्त	-9.61123
▁लिखे	-9.6145
रेट	-9.61494
re	-9.61753
▁मिट	-9.61941
▁दक्षिण	-9.61957
▁दि	-9.61982
▁In	-9.62119
▁http	-9.62192
लब	-9.62211
▁आंकड़	-9.62793
▁तुल्यकाल	-9.62794
▁RS	-9.62991
ंतरि	-9.6309
distribute	-9.63252
▁केंद्र	-9.63376
▁संवेदनशील	-9.63415
▁विशेष	-9.63463
ाने	-9.63498
ahoo	-9.63561
▁गुणवत्ता	-9.636
▁प्रोटोकाल	-9.636
▁भुगतान	-9.636
▁रसीद	-9.636
▁सॉलिटेयर	-9.636
▁आयोजक	-9.636
▁कुंजियाँ	-9.63601
▁वाक्यांश	-9.63601
▁पिण्ड	-9.63601
▁अनुक्रम	-9.63601
header	-9.63602
▁चेकसम	-9.63602
TLS	-9.63603
▁स्काइप	-9.63603
▁इंजन	-9.63603
▁अस्वीकृत	-9.63603
▁फोलो	-9.63604
▁संपीड	-9.63604
desktop	-9.63609
▁असुरक्षित	-9.63617
▁पहचानकर्ता	-9.63623
लां	-9.63634
▁जाएँगी	-9.6366
▁आगत	-9.63692
▁पेटी	-9.63693
▁Ex	-9.6374
shed	-9.63801
▁राज	-9.63812
▁गोपित	-9.63851
▁बाल्टिक	-9.63856
▁message	-9.63857
्रास	-9.63858
▁प्रत्येक	-9.63858
se	-9.6389
▁तय	-9.63982
▁केंद्रित	-9.63995
▁जावा	-9.64034
▁चुकी	-9.64046
टेक्स	-9.64129
▁टूल	-9.64143
▁Th	-9.64179
एँ	-9.64224
▁हटाया	-9.64235
▁रोक	-9.6427
▁पहला	-9.64282
▁प्ले	-9.64376
ाइल	-9.6438
▁जोकर	-9.64406
स्ट्रीम	-9.64453
▁मु	-9.64618
▁जाए	-9.64709
in	-9.64829
▁फाइलें	-9.64857
▁होकर	-9.64869
Flo	-9.65037
X	-9.65087
▁दिय	-9.65088
rms	-9.65139
▁"--	-9.65191
IN	-9.65452
rd	-9.65766
बायें	-9.65965
▁रही	-9.66007
▁file	-9.66065
▁पढ़ा	-9.66299
▁ट	-9.66351
▁=	-9.66446
▁दिख	-9.66567
▁स्लाइ	-9.66606
प्यूटर	-9.66974
▁am	-9.67205
end	-9.67895
▁ख	-9.68106
ec	-9.68318
ेदन	-9.68556
ियो	-9.68602
लॉग	-9.68683
मान	-9.68766
TY	-9.68965
▁उत्प	-9.69046
दिवस	-9.69151
▁होत	-9.69153
use	-9.69298
कुम	-9.69463
name	-9.6956
▁J	-9.69619
▁la	-9.69685
et	-9.70099
ma	-9.7018
▁on	-9.70272
फ	-9.7035
▁उच	-9.70592
र्य	-9.70616
▁जापानी	-9.7064
क्स	-9.71191
▁M	-9.71246
िट	-9.71247
▁एट	-9.71339
IL	-9.71459
▁कैम	-9.71544
सेंट	-9.71669
▁te	-9.72037
▁टूट	-9.72136
IS	-9.72238
▁ब्राउज़	-9.72381
रू	-9.7248
▁%.	-9.7249
ीकृत	-9.7268
▁महत्व	-9.72686
master	-9.72691
reminder	-9.72691
▁आवर्द्धक	-9.72691
▁उद्देश्य	-9.72691
▁एलागरिथम	-9.72691
▁दीर्घा	-9.72691
▁यूआरआई	-9.72691
▁याहू	-9.72691
▁कम्प्यूटर	-9.72691
▁स्लॉट	-9.72691
▁गिनती	-9.72691
▁अपवाद	-9.72691
▁वेबसाइट	-9.72693
start	-9.72693
वेस्टर्न	-9.72693
▁SAS	-9.72694
▁एक्सेंज	-9.72695
▁आस्ट्रेलिया	-9.72695
▁स्पैमएस	-9.72695
▁असंभव	-9.72699
▁इंतज	-9.72701
▁चार्ट	-9.72704
▁सापेक्ष	-9.72708
▁प्रतिक्रिया	-9.72709
csv	-9.72713
▁ढूँढ़ें	-9.72716
▁पाएंगे	-9.72725
▁दिशा	-9.72729
▁पुनःप्राप्त	-9.72729
▁नेटम	-9.72731
▁सत्ता	-9.72743
▁एनकोडिंग्स	-9.72743
▁विभ	-9.72749
▁बदलाव	-9.72751
▁घंटा	-9.7276
▁भंडारण	-9.72764
ान	-9.72768
▁Lib	-9.72769
▁निस्पंद	-9.72817
▁ग्रूपव	-9.72824
▁थ्रेड	-9.72853
▁लेआउट	-9.7287
▁लंब	-9.72888
▁पट्ट	-9.72929
▁E	-9.72952
▁रूपांतरित	-9.72952
▁स्थगित	-9.72963
▁बायां	-9.72964
▁टर्मिनल	-9.72964
▁तरू	-9.72968
ppointment	-9.72983
▁पढ़ें	-9.72986
ंख	-9.73001
▁पठन	-9.73273
▁विशिष्ट	-9.73308
▁निर्गमक	-9.73332
▁gen	-9.73569
बहाल	-9.73796
ोगो	-9.7384
TM	-9.7391
हस्ताक्षरित	-9.73924
▁फ़ाइलनाम	-9.73935
ent	-9.74144
हन	-9.74146
▁Se	-9.74197
▁Fran	-9.74288
▁e	-9.74708
लाइट	-9.74751
▁अनसेट	-9.74816
for	-9.74901
▁चार	-9.74948
▁g	-9.75034
▁चयनक	-9.75391
रल	-9.75476
▁दृश्यता	-9.7559
बतक	-9.75591
zilla	-9.75776
▁फिट	-9.7603
ets	-9.76064
▁ध	-9.76115
ET	-9.76131
▁विफलता	-9.76257
▁IM	-9.76515
▁सम्	-9.76638
ांत	-9.76641
जो	-9.76777
फ़	-9.76908
टर	-9.77054
▁पूर्ववत	-9.77056
दा	-9.77141
as	-9.77539
▁सोर्स	-9.77701
स्क	-9.77767
{	-9.78098
▁बा	-9.78218
पाठ	-9.78295
गार	-9.78338
उपयोक्ता	-9.7834
ां	-9.78351
नवी	-9.78521
List	-9.78609
To	-9.78637
ैर	-9.78663
fs	-9.78717
number	-9.78799
▁बॉक्स	-9.78811
उदा	-9.78859
करण	-9.78887
न्न	-9.78983
▁%(	-9.79012
ore	-9.79132
▁अस्वीकार	-9.79139
▁I	-9.7934
अल	-9.79529
der	-9.80397
▁रिंग	-9.80772
बा	-9.80931
लिए	-9.80999
▁Y	-9.81464
email	-9.81479
IP	-9.81638
▁विरोध	-9.82197
▁“	-9.82604
book	-9.82612
▁गोपनीय	-9.82676
preferences	-9.82691
▁PKCS	-9.82691
▁every	-9.82691
▁अंटार्कटिका	-9.82691
▁अनुपस्थित	-9.82691
▁एनीमेशन	-9.82691
▁तर्जनी	-9.82691
▁विएतनामी	-9.82691
▁सन्देश	-9.82691
▁कंसोल	-9.82691
▁नेटवर्क	-9.82691
▁शरीर	-9.82691
▁निर्यात	-9.82691
हायपर	-9.82691
▁सम्पर्क	-9.82691
▁सौंप	-9.82692
▁ढेर	-9.82692
▁क्लासिक	-9.82692
▁एसवी	-9.82693
Play	-9.82694
▁डेटाबेस	-9.82696
▁अभिव्यक्ति	-9.82697
▁बायाँ	-9.82697
pack	-9.82697
▁अट्ठा	-9.82697
▁अपठित	-9.82698
▁रेंडर	-9.82699
▁निकास	-9.82702
Level	-9.8271
▁चलाएं	-9.82711
▁इनकोड	-9.82715
▁Cdr	-9.8273
▁कालबैक	-9.82735
▁गीतसूची	-9.82736
▁मालिक	-9.82742
▁निरसन	-9.82745
▁अनुकूलित	-9.82757
▁ऑन	-9.82764
▁चलायें	-9.82773
▁बाकी	-9.82777
▁विभाजन	-9.82798
▁परिव	-9.8281
▁अपूर्ण	-9.8281
▁बनायें	-9.82815
▁सूचनाएँ	-9.82902
▁रंजन	-9.8295
▁प्रस्ताव	-9.82987
▁Evolution	-9.8299
▁तीन	-9.8301
▁उत्पाद	-9.83044
ecurity	-9.83102
वश्य	-9.83113
▁ब्लॉक	-9.83115
KR	-9.83277
▁ऑफ	-9.83297
▁फ्री	-9.83343
▁फा	-9.83363
▁निष्पादन	-9.8337
स्कोप	-9.83401
▁विरूप	-9.83421
▁दाहिना	-9.83493
recurr	-9.8353
▁लाएँ	-9.83543
▁गण	-9.83556
▁style	-9.83571
▁stdout	-9.83727
▁विं	-9.8376
▁बर्नर	-9.84249
िस	-9.84327
Stre	-9.84344
dr	-9.84415
क्यू	-9.84525
▁tha	-9.84557
ु	-9.84626
▁पट	-9.84665
मोट	-9.84905
हत	-9.8491
▁Web	-9.85209
▁देत	-9.85392
▁चलाय	-9.85647
hat	-9.85775
थ	-9.85815
ँ	-9.85838
र्क	-9.85963
CA	-9.85992
ैनि	-9.86073
आटोडिटेक्ट	-9.86094
लेखन	-9.86156
▁कॉम	-9.86215
▁ma	-9.86271
▁संबंधित	-9.86355
▁स्थानांतर	-9.86441
▁user	-9.86588
▁इमेज	-9.86723
po	-9.86795
बिलि	-9.86844
▁मो	-9.86916
line	-9.87123
▁प्रश	-9.87563
md	-9.87719
▁कं	-9.88096
साथ	-9.88173
कार	-9.88256
▁पत्र	-9.88361
▁पैन	-9.88588
▁पांच	-9.88611
पीआई	-9.88762
म्	-9.88885
▁f	-9.88892
▁स्म	-9.8895
ोल	-9.88995
वाई	-9.89177
▁जहा	-9.89378
डीवीडी	-9.8957
कुल	-9.89694
▁जुड़ा	-9.89773
गोपन	-9.89946
प्रेषक	-9.9
सही	-9.90179
user	-9.90281
ख	-9.90603
ांकि	-9.90758
जें	-9.90792
▁wa	-9.9092
odif	-9.90976
देश	-9.90978
प्त	-9.91057
▁लेक	-9.91073
ंस	-9.91159
(_	-9.91319
ic	-9.91343
▁सके	-9.91354
red	-9.91938
▁दाहिन	-9.91992
जा	-9.92291
पूर्ण	-9.92578
▁प्रगति	-9.92688
पत्र	-9.92966
▁डि	-9.93219
▁जाएंग	-9.93514
▁mo	-9.93669
लग्नक	-9.93751
▁Elm	-9.93802
▁SpamAssassin	-9.93802
▁थंबनेल	-9.93802
▁निब्बल्स	-9.93802
▁ब्रॉउज	-9.93802
▁विस्तृत	-9.93802
▁संकुचित	-9.93802
toolbar	-9.93802
▁लाइब्रेरी	-9.93802
XDG	-9.93803
score	-9.93804
▁तकनीक	-9.93804
▁पुस्तचिह्न	-9.93804
▁ग्रिड	-9.93804
▁पंजीकृत	-9.93806
▁निर्गत	-9.93808
▁सटीक	-9.93809
▁वर्ष	-9.93809
▁चेक	-9.93809
▁इनबाक्स	-9.9381
▁TX	-9.93811
▁निरस्त	-9.93821
▁been	-9.93823
▁महीने	-9.93823
▁अर्थ	-9.93827
▁रोमानियाई	-9.93829
▁चू	-9.93836
▁संपुष्टि	-9.93838
Type	-9.93841
▁तुर्की	-9.93867
▁spe	-9.93883
▁पूर्णस्क्रीन	-9.93888
▁अरबी	-9.93891
▁लौटाया	-9.93896
स्टम	-9.93918
▁हटाएं	-9.9392
tom	-9.93965
iver	-9.94007
▁इक्का	-9.94052
▁पारदर्शिता	-9.94073
्ड	-9.94074
bo	-9.94076
▁शेल	-9.94112
▁पुनरावर्त	-9.94118
▁ग्रीक	-9.9414
JP	-9.94142
mark	-9.94215
▁ओर	-9.94228
▁बहुल	-9.94251
▁फाइलनाम	-9.94365
▁इसक	-9.94485
▁छोटे	-9.94504
▁बिंदु	-9.94544
▁My	-9.94598
an	-9.94683
▁प्रकार्य	-9.94883
▁GT	-9.94885
▁एक्	-9.94899
EX	-9.94907
▁mod	-9.94981
▁नियमित	-9.94992
un	-9.95015
▁श्री	-9.95181
▁लौटा	-9.95237
▁प्राप्ति	-9.95242
port	-9.95335
▁बूलिय	-9.9542
▁अंतर्	-9.95525
▁बुल	-9.95665
▁हमार	-9.95681
ेंट	-9.95719
CK	-9.9595
▁किनारा	-9.95953
▁सी	-9.96084
▁चौबीस	-9.96129
aj	-9.96137
▁टाइल	-9.96154
-_	-9.9619
▁लोक	-9.96413
़ाका	-9.96543
pro	-9.96593
▁माइक्रो	-9.9667
▁ली	-9.96686
आर	-9.96687
ill	-9.9677
▁जि	-9.96809
▁Name	-9.97004
▁सूच	-9.97018
ran	-9.97165
ाई	-9.97225
ard	-9.9726
▁बारी	-9.97283
सिन	-9.9735
#-#-#	-9.97569
de	-9.97578
cal	-9.97889
▁पश्चात	-9.9814
ra	-9.98164
-#-#	-9.98372
निक	-9.98458
▁टिक	-9.98758
ै	-9.98814
▁मिलान	-9.98867
त्र	-9.99053
▁Mi	-9.99355
▁चर	-9.99734
याँ	-9.99786
बल	-9.99914
nt	-10.0005
on	-10.0053
▁Ba	-10.006
खोज	-10.0118
▁बज	-10.0132
▁SO	-10.0133
तयशुदा	-10.0138
▁un	-10.0141
पोर्ट	-10.0154
योग्य	-10.0158
▁कल	-10.0164
set	-10.0172
गो	-10.0189
rit	-10.0196
देन	-10.0198
▁आलेखी	-10.0206
settings	-10.0208
शुद्ध	-10.0211
क्षित	-10.0242
सेकेंड	-10.025
state	-10.025
सेटअप	-10.0254
सिमुलेशन	-10.026
file	-10.0265
बी	-10.027
फलक	-10.0271
भिन्न	-10.0271
▁बदला	-10.0306
CC	-10.0312
▁भरोस	-10.0403
िय	-10.0429
संबंधित	-10.0446
ैदा	-10.0492
▁दोहर	-10.0506
▁पत्त	-10.0531
▁रहन	-10.0547
▁wi	-10.0561
eric	-10.0571
ेशन	-10.0576
er	-10.0577
▁खिलाड़	-10.0583
▁सहभाग	-10.0584
▁पहल	-10.0593
▁डा	-10.0597
▁धीम	-10.0606
GB	-10.0611
मे	-10.0614
▁विश्लेष	-10.0627
▁घुसा	-10.0629
ऊ	-10.063
▁सफल	-10.063
example	-10.063
Insert	-10.063
▁Evince	-10.063
▁अग्रसारण	-10.063
▁ग्राहक	-10.063
▁छक्का	-10.063
▁नक्शे	-10.063
▁प्रर्दश	-10.063
▁मोज़िला	-10.063
▁उन्मुख	-10.063
▁रिक्तिकरण	-10.063
▁कार्यान्व	-10.063
▁शिफ्ट	-10.063
▁उपफोल्डर	-10.063
▁मौड्यूल	-10.063
▁उक्रेनियाई	-10.063
▁पोस्ट	-10.063
जेक्ट	-10.063
▁जायेंगे	-10.0631
▁सर्विस	-10.0631
Big	-10.0631
▁पहुंचनीय	-10.0631
▁प्रोफाइल	-10.0631
▁नहला	-10.0631
▁लगाएँ	-10.0631
xpand	-10.0631
OWA	-10.0631
▁Connect	-10.0631
▁इंस्ट	-10.0631
▁बाँटें	-10.0631
▁स्वरूप	-10.0632
▁ऑपरे	-10.0633
cro	-10.0633
▁विशेषताएँ	-10.0633
▁ब्राउज	-10.0633
▁इंच	-10.0633
▁मेमो	-10.0634
▁दोहराएँ	-10.0634
▁खींचें	-10.0635
png	-10.0635
▁बोन	-10.0635
ाली	-10.0636
▁व्यवसाय	-10.0636
hine	-10.0636
User	-10.0637
CONF	-10.0638
▁छांटें	-10.064
Bcc	-10.0643
▁कनेक्टेड	-10.0644
soft	-10.0644
▁तुल	-10.0645
▁हस्ताक्षरकर्ता	-10.0646
▁स्थिर	-10.0647
▁`	-10.0653
▁प्लेन	-10.0655
▁बड़ी	-10.0659
get	-10.0661
▁पाइथन	-10.0662
▁आदि	-10.0666
▁आरोह	-10.0666
▁minute	-10.0666
▁अनिवार्य	-10.0666
▁व्याख्या	-10.0666
▁बढ़ाने	-10.0672
▁डे	-10.0674
▁जीता	-10.0674
▁अनियत	-10.0676
हां	-10.068
हीन	-10.0685
▁बुक	-10.0687
▁पाँस	-10.0687
▁author	-10.0703
▁सूचीबद्ध	-10.0703
▁अच्छा	-10.0706
▁पत्ते	-10.0709
▁संतृप्ति	-10.0715
मि	-10.0722
RW	-10.0722
▁योजना	-10.074
▁टा	-10.0749
ar	-10.076
धिक	-10.0774
ite	-10.0777
▁नि	-10.0781
Name	-10.0783
दार	-10.0791
IM	-10.0793
▁गयी	-10.0802
ाना	-10.0819
यर	-10.082
am	-10.0821
▁दु	-10.0849
▁शो	-10.087
▁प्रतिस्थाप	-10.0871
ins	-10.0876
▁व्याप	-10.0887
रेखी	-10.0907
सिफर	-10.0908
one	-10.0909
LE	-10.091
▁सूचक	-10.0921
▁डॉ	-10.0929
ूप	-10.0964
▁प्रत्य	-10.0964
▁...(_	-10.0965
सर	-10.0985
▁#	-10.1017
▁हम	-10.1039
▁लाग	-10.1045
रूम	-10.1053
▁पि	-10.1063
जु	-10.1082
फ़ाइल	-10.1085
▁थाई	-10.1098
▁बुला	-10.1126
link	-10.1129
IF	-10.1135
wis	-10.1145
डो	-10.1146
▁war	-10.1159
▁उनक	-10.1161
▁संक्षिप्त	-10.1173
अ	-10.1183
▁बदलन	-10.1258
ink	-10.1283
्त	-10.13
यह	-10.133
टने	-10.1342
▁...)	-10.1351
मीटर	-10.1355
▁ड्र	-10.1364
पर्य	-10.1364
चयनित	-10.1443
क्रिय	-10.1455
वे	-10.1458
jo	-10.1464
▁कु	-10.1494
▁स्टि	-10.1519
the	-10.1522
लिन	-10.1524
erio	-10.1532
▁मुद्	-10.1547
एम	-10.1556
निर्देशिका	-10.1558
बैक	-10.1563
gg	-10.1583
वस्तु	-10.1599
to	-10.1606
▁क्	-10.1625
गुआ	-10.1656
लिस्ट	-10.1665
युक्त	-10.1667
▁सम्म	-10.1672
").	-10.1673
क्षैतिज	-10.1675
सिस्टम	-10.1677
▁आव	-10.1686
फोन	-10.1687
default	-10.1687
डा	-10.169
Web	-10.1708
बत	-10.1711
ंड	-10.1716
▁mail	-10.173
ld	-10.1758
निया	-10.1759
प्रारंभ	-10.178
बिसा	-10.1785
्याज	-10.1804
mer	-10.1842
...(_	-10.1854
नामकरण	-10.1867
▁अच्छ	-10.1874
्म	-10.1878
▁उच्च	-10.1882
▁window	-10.1886
It	-10.1888
▁चाह	-10.1897
चेंज	-10.191
प्रयुक्त	-10.1913
जह	-10.1922
▁छोड़न	-10.1933
▁बाह	-10.1951
ian	-10.1954
▁डेवल	-10.1986
▁घट	-10.1997
st	-10.2006
▁सृज	-10.2033
ंतु	-10.2038
▁प्रकट	-10.2042
▁सेकण्ड	-10.2056
kiga	-10.2058
View	-10.2059
▁आर्मेनियाई	-10.2059
▁क़िस्म	-10.2059
▁गंभीर	-10.2059
▁चमकीलापन	-10.2059
▁टिप्पणी	-10.2059
▁पृथक	-10.2059
▁बीजशब्द	-10.2059
▁लिफाफा	-10.2059
▁विज़ेट	-10.2059
▁शार्टकट	-10.2059
▁सफेद	-10.2059
▁समीक्षा	-10.2059
▁एस्लेरियॉट	-10.2059
▁प्रथम	-10.2059
screen	-10.2059
▁अनुमापन	-10.2059
▁डिसप्ले	-10.2059
icons	-10.2059
▁एपिफ	-10.2059
uration	-10.2059
▁Group	-10.2059
▁ईकाई	-10.2059
look	-10.2059
▁Libburn	-10.2059
▁क्रमांक	-10.2059
▁शहर	-10.2059
▁रिकवर	-10.2059
▁लोकेल	-10.2059
center	-10.2059
▁अंतरफलक	-10.2059
ॉल्यूशन	-10.2059
▁प्रतीक्षारत	-10.2059
▁श्रृ	-10.206
▁आँख	-10.206
▁कंपनी	-10.2061
▁पुनर्भंडारण	-10.2061
▁हुये	-10.2061
▁एन्कोड	-10.2061
▁मि	-10.2061
▁राज्य	-10.2062
▁पंजा	-10.2062
▁भाषाएँ	-10.2063
▁प्रकाशक	-10.2064
▁त्यागें	-10.2064
▁ट्रैश	-10.2066
▁FTP	-10.2067
▁सचेतक	-10.2067
▁आसान	-10.2067
▁रास्त	-10.2067
▁लगता	-10.2067
▁मिटायें	-10.2068
ोबो	-10.2071
हिना	-10.2072
पुष्टि	-10.2074
▁संशोधन	-10.2078
refer	-10.208
▁महा	-10.208
▁गोपनीयता	-10.2081
हा	-10.2083
▁अनुस	-10.2085
▁lib	-10.2095
▁रहेगा	-10.2099
▁kbit	-10.2099
▁फैक्स	-10.2099
▁स्पेस	-10.2099
▁प्रती	-10.21
▁size	-10.21
▁महीना	-10.2101
▁UT	-10.2102
▁साइन	-10.2113
▁बच	-10.2122
card	-10.2126
▁दिखाए	-10.213
▁अनुप्रयोगः	-10.2132
प्रेषित	-10.2133
--	-10.2135
वान	-10.2141
ेलन	-10.2147
▁टोकन	-10.2152
▁अंतरा	-10.2153
second	-10.2166
▁None	-10.2175
▁मौ	-10.2177
▁पढ	-10.2184
▁विस्तारक	-10.2185
चरण	-10.2186
▁days	-10.2195
▁आकारः	-10.2213
▁स्थानः	-10.2216
▁संपीड़ित	-10.2232
पन्न	-10.2237
Un	-10.2237
▁भरे	-10.2238
▁Ma	-10.2243
बे	-10.2244
▁योग	-10.2251
रियो	-10.2272
▁विंडोज	-10.2275
▁छापे	-10.2284
▁कार	-10.2289
सीसी	-10.2292
यें	-10.2308
▁DN	-10.2309
▁पाएँ	-10.2309
▁फोक	-10.2311
▁events	-10.234
▁i	-10.2342
ंटी	-10.2363
ontrol	-10.2372
ics	-10.2374
▁फो	-10.2395
od	-10.2395
curr	-10.2417
▁टन	-10.2432
▁default	-10.2445
▁चु	-10.2447
▁युक्त	-10.2448
▁.	-10.2452
डेटा	-10.2507
▁स्ट	-10.2518
ालिया	-10.2521
▁O	-10.2531
ja	-10.2541
इंडिय	-10.2549
ंचा	-10.2566
▁छ	-10.2586
ोंट	-10.2604
▁end	-10.2613
▁बन	-10.2646
▁N	-10.2652
▁बजा	-10.2658
▁उत्	-10.2659
rbe	-10.2661
▁श	-10.2673
▁चुनन	-10.2674
रती	-10.2675
▁पुरा	-10.2677
ase	-10.269
▁सारा	-10.269
▁पाय	-10.2702
शी	-10.2702
▁क्र	-10.2706
▁ठहरा	-10.276
▁प्रतिबंध	-10.277
गल	-10.2781
rom	-10.2782
▁बदली	-10.2787
▁अनुसूच	-10.2809
यास	-10.2813
ड़	-10.2817
om	-10.2822
nder	-10.2835
र्ड	-10.2852
▁परि	-10.2887
▁भेजी	-10.2889
▁मैन	-10.2895
्नू	-10.2944
ot	-10.2966
रिया	-10.2979
▁किय	-10.2981
रो	-10.2988
ू	-10.2997
display	-10.2999
▁दबाय	-10.3038
▁जिसक	-10.305
वि	-10.3054
▁लगा	-10.3061
ेट	-10.3085
Bu	-10.31
सक्रिय	-10.3114
▁Mo	-10.312
कैसे	-10.3125
प्रकार	-10.3134
वीडियो	-10.3147
समय	-10.3153
▁फ़	-10.3161
ki	-10.3185
्सेसि	-10.3197
ब्लि	-10.3197
▁लड़	-10.32
ंबर	-10.3202
िये	-10.3208
ल्ड	-10.3214
est	-10.3221
▁जांचे	-10.3222
प्रिय	-10.3234
▁ध्य	-10.3243
Wi	-10.3247
अवैध	-10.3247
iB	-10.3266
उत्तर	-10.3282
"%	-10.3285
list	-10.3299
देखें	-10.3302
▁GA	-10.3315
ंद	-10.3322
Folder	-10.3327
menu	-10.3328
मिनट	-10.3335
with	-10.3337
you	-10.3342
कार्यालय	-10.3343
अग्रसारित	-10.3346
Subject	-10.3346
वास्तव	-10.3349
The	-10.3349
दिन	-10.3355
Yahoo	-10.3358
▁fr	-10.336
▁खात	-10.3364
type	-10.3372
▁बढ़न	-10.3378
.%	-10.3381
read	-10.339
▁पूछे	-10.3411
न्स	-10.3417
▁चौ	-10.3457
ण्ड	-10.3473
रह	-10.3514
टार	-10.3525
▁item	-10.3531
पेक्ष	-10.3537
▁बड	-10.3541
पद	-10.355
tab	-10.3554
गत	-10.3556
पारदर्शी	-10.3562
No	-10.3564
▁श्रे	-10.3573
▁भरा	-10.3582
ादन	-10.3602
▁format	-10.3615
▁जरुर	-10.3667
▁विभाज	-10.3689
▁स्विच	-10.3692
▁manual	-10.3701
gro	-10.3702
▁कठिन	-10.3707
▁उन्न	-10.3714
ीएफ़	-10.3716
▁आमंत्र	-10.3718
able	-10.3722
▁सर्वाधिक	-10.3722
▁कोडेक	-10.3725
xml	-10.3725
DAV	-10.3725
▁track	-10.3725
▁औपबंधिक	-10.3725
Forward	-10.3725
NTLM	-10.3725
Search	-10.3725
daemon	-10.3725
▁Browser	-10.3725
▁अंगूठा	-10.3725
▁अभिमुखन	-10.3725
▁क्लाएंट	-10.3725
▁चव्वा	-10.3725
▁झटकें	-10.3725
▁टचपैड	-10.3725
▁तिक्की	-10.3725
▁दृष्टांत	-10.3725
▁फैक्टरी	-10.3725
▁मापदंड	-10.3725
▁मॉनिटर	-10.3725
▁विविध	-10.3725
▁सुझा	-10.3725
▁इंटरपोलेट	-10.3725
▁वेबकैल	-10.3725
▁ऑब्जेक्ट	-10.3725
▁फ्रीसेल	-10.3725
▁सावधान	-10.3725
▁नेविगे	-10.3725
location	-10.3725
▁बेगम	-10.3725
▁हाइपर	-10.3725
▁STARTTLS	-10.3726
▁ढाल	-10.3726
▁टीएआर	-10.3726
▁सुडोकु	-10.3726
▁फैलाएँ	-10.3726
▁Brasero	-10.3726
▁Open	-10.3726
timedata	-10.3726
▁VoIP	-10.3726
▁वर्णमाला	-10.3726
textentry	-10.3726
video	-10.3726
गी	-10.3726
▁WebDAV	-10.3726
▁मात्रा	-10.3726
▁कुकीज़	-10.3726
▁कीजिए	-10.3726
▁वितर्क	-10.3726
▁भ्वा	-10.3726
▁स्टाइल	-10.3727
▁जूम	-10.3727
इंडियाना	-10.3727
▁ढूँढें	-10.3727
XMP	-10.3728
▁car	-10.3728
Reply	-10.3728
▁Messages	-10.3728
▁विभाग	-10.3728
▁बनाएगा	-10.3729
▁प्रस्तुति	-10.3729
▁साइड	-10.373
near	-10.373
▁सिकोड़ें	-10.373
▁बेनाम	-10.3731
▁हुला	-10.3731
▁दिखेगा	-10.3731
▁इकाइयों	-10.3732
▁सर्वो	-10.3733
▁वर्गीकरण	-10.3734
डायरेक्ट	-10.3734
▁संकुल	-10.3734
▁जीडी	-10.3734
▁समूहीकृत	-10.3734
▁पीस	-10.3736
▁कूट	-10.3737
CRL	-10.3737
force	-10.3739
▁Cal	-10.374
▁जबाव	-10.374
▁वाक्य	-10.3741
ाल	-10.3741
▁हंस	-10.3742
▁पुनर्	-10.3742
▁परिसर	-10.3743
▁सिमुलेट	-10.3746
▁मिलाएँ	-10.3747
▁पुनर्प्राप्ति	-10.3747
▁कुकी	-10.3748
▁बुरा	-10.3748
part	-10.3751
सेरो	-10.3751
यद	-10.3752
▁होंगे	-10.3756
▁खुला	-10.3757
▁Mail	-10.3759
▁स्विचर	-10.3761
▁वैस	-10.3763
▁ध्वज	-10.3764
▁तरीका	-10.3764
▁चलें	-10.3765
▁हस्तांतर	-10.3771
▁ठहरें	-10.3773
थन	-10.3774
▁मध्यम	-10.3775
▁जाएंगी	-10.3776
▁मानचित्र	-10.3778
▁स्कैनिंग	-10.3784
▁यून	-10.3788
▁बाएँ	-10.3794
▁दबाए	-10.3796
▁मेरी	-10.3796
वर्गीकृत	-10.3796
▁सीम	-10.3797
भार	-10.38
▁डाय	-10.381
▁निस्प	-10.3813
▁विरोधी	-10.3813
▁जुड़े	-10.3823
ंकर	-10.3827
AIN	-10.3829
▁Ke	-10.383
▁application	-10.3833
▁अवस्थ	-10.3835
pf	-10.384
signature	-10.3843
▁अच्छे	-10.3846
▁अधिकार	-10.3865
▁आफ	-10.3879
▁codec	-10.3891
BO	-10.3905
▁Out	-10.3906
▁न्यास	-10.3909
▁मिलीसेकेंड	-10.391
▁KB	-10.391
▁बोर्ड	-10.3912
▁स्कोर	-10.3924
▁संगत	-10.3928
▁ड	-10.3942
▁न्यू	-10.3947
▁मानव	-10.3949
▁मिली	-10.3965
▁कहाँ	-10.3972
▁RFC	-10.3974
▁माइक्रोसॉफ	-10.3981
टाक	-10.3995
तीसवां	-10.4004
▁आत	-10.4012
▁विस्तारित	-10.4015
aildir	-10.4018
नों	-10.4019
गुना	-10.4021
▁up	-10.4029
▁तल	-10.4038
▁:	-10.4044
CN	-10.4045
बो	-10.4053
zh	-10.4053
tring	-10.4059
▁बैक	-10.4064
ओ	-10.4076
▁पैड	-10.4084
ृ	-10.4099
EN	-10.4108
▁आंकडे	-10.4125
लर	-10.4128
▁चरण	-10.4133
ांतरण	-10.4136
nge	-10.4136
▁पद	-10.4142
▁पड़	-10.4155
गर	-10.4173
ray	-10.42
साफ्ट	-10.4202
▁गाय	-10.4204
▁पाइल	-10.4213
आ	-10.422
▁आयाम	-10.422
▁आर	-10.4222
ाम	-10.4223
▁फ़ोल्डर्स	-10.4228
▁खुले	-10.4229
el	-10.4229
▁बु	-10.4238
बन	-10.4248
▁जिसमे	-10.4251
▁अध	-10.4267
▁बेस	-10.4268
le	-10.4272
sum	-10.4272
त्मक	-10.4273
toc	-10.4287
▁उलट	-10.4292
▁रहें	-10.4297
ीन	-10.4329
पीएस	-10.4332
▁पंजी	-10.4332
▁पढ़े	-10.4333
▁मीटर	-10.4337
cript	-10.4357
▁घुमा	-10.437
स्व	-10.4377
abber	-10.4387
ive	-10.4402
▁वा	-10.4406
en	-10.4433
▁बफ	-10.4442
▁छाँट	-10.4446
rea	-10.4459
ाइन	-10.4489
▁वृ	-10.4491
▁कौ	-10.4506
▁पूछन	-10.4517
Sp	-10.4519
ost	-10.4532
ache	-10.4535
OM	-10.4563
▁IP	-10.4572
सा	-10.4578
pipe	-10.4596
ेस	-10.4619
ेमाल	-10.4629
▁व्या	-10.464
रीक्षण	-10.4666
दम	-10.4682
▁प्रदा	-10.4691
▁मेटा	-10.4695
ike	-10.4699
▁पाई	-10.4706
▁बॉ	-10.4737
▁सहेजत	-10.474
ami	-10.4742
इ	-10.4747
्यूल	-10.4765
पे	-10.4771
एल	-10.4807
▁दिखत	-10.4812
▁थ	-10.482
ोस	-10.4821
रबा	-10.4832
▁रिस	-10.4848
▁सु	-10.4861
ound	-10.4861
#-#	-10.4881
ृह	-10.4908
एं	-10.4947
्रेस	-10.4968
me	-10.4996
ौन	-10.5002
▁बहुविध	-10.5014
-#-#-#	-10.5037
▁बजाए	-10.514
▁CO	-10.5145
तेज	-10.5149
imi	-10.5156
▁विन	-10.5158
रिंग	-10.5176
▁अधिकत	-10.5187
▁al	-10.5193
▁बांटन	-10.5194
ex	-10.5211
ेस्ट	-10.5221
लोड	-10.523
▁स्	-10.524
▁सेल	-10.5241
बेल	-10.5246
#	-10.5247
मझौ	-10.5247
जांच	-10.5255
up	-10.5262
▁("	-10.527
फ़िल्टर	-10.5285
▁पै	-10.5291
शीर्षक	-10.5298
सामान्य	-10.53
शीट	-10.532
URI	-10.5321
र्स्ट	-10.5329
छुपायें	-10.5334
जिन	-10.5334
घंटे	-10.5347
gconf	-10.5347
▁li	-10.5374
जैसे	-10.5381
भा	-10.5388
'%	-10.5396
▁डेम	-10.5442
आन	-10.5447
ेबल	-10.5451
▁लोग	-10.5452
दु	-10.5468
है	-10.547
▁बताये	-10.5471
लट	-10.5487
par	-10.5491
टाबेस	-10.55
▁छांट	-10.5504
macs	-10.5506
▁प्राथमिक	-10.5508
मेरा	-10.5522
▁बै	-10.553
▁खो	-10.5534
folder	-10.5547
dm	-10.5553
चार	-10.5562
▁read	-10.5564
उ	-10.5566
▁मै	-10.558
मो	-10.5607
कुछ	-10.5609
ीं	-10.5623
econd	-10.5632
▁मसौद	-10.5643
ौत	-10.5648
▁स्क्र	-10.5652
▁संशोध	-10.566
▁गहर	-10.5661
▁परिवर्ध	-10.5661
ाउंड	-10.5677
Secur	-10.5682
▁काला	-10.5686
▁मल्टी	-10.5698
▁फोल्ड	-10.5698
box	-10.571
वर	-10.5713
▁event	-10.5714
▁प्रविष्ट	-10.5715
rror	-10.5716
▁ढूँढ़	-10.572
लु	-10.5722
▁पुनर्भंडार	-10.5722
▁अभिगम	-10.5723
▁उल्लेख	-10.5725
Chooser	-10.5725
ESendOptions	-10.5725
Location	-10.5725
picture	-10.5725
▁NameOfTheUser	-10.5725
▁इल्ली	-10.5725
▁एंटीएलियासिंग	-10.5725
▁एंबेडेड	-10.5725
▁एक्सेर्साइसर	-10.5725
▁कंट्रास्ट	-10.5725
▁गुजराती	-10.5725
▁जैब्बर	-10.5725
▁डिजिटल	-10.5725
▁निषेधित	-10.5725
▁प्रामाण	-10.5725
▁रोबोट	-10.5725
▁वैज्ञानिक	-10.5725
▁समीक्षक	-10.5725
▁सुविधा	-10.5725
▁स्तम्भ	-10.5725
▁शुरूआत	-10.5725
Epiphany	-10.5725
Shift	-10.5725
▁रजिस्ट्री	-10.5725
config	-10.5725
▁PNG	-10.5725
▁शिशु	-10.5725
▁मॉड्यूल	-10.5725
▁गुरूमुखी	-10.5725
popup	-10.5726
▁गुलाम	-10.5726
class	-10.5726
▁एचटीएमएल	-10.5726
▁दुहरा	-10.5726
▁रविवार	-10.5726
▁अनामिका	-10.5726
▁शनिवार	-10.5726
▁कागज	-10.5726
▁TCP	-10.5726
Format	-10.5726
▁ओवर	-10.5726
▁अंतःक्रिया	-10.5726
▁टाइमआउट	-10.5726
▁पुनर्बहाल	-10.5726
dvd	-10.5726
▁छिपाएँ	-10.5726
▁कंपाइल	-10.5726
बाउंस	-10.5726
▁आइसलैंडिक	-10.5726
▁स्वामी	-10.5726
▁सुरंग	-10.5726
▁प्रस्तुतीकरण	-10.5726
▁गेंद	-10.5726
both	-10.5727
▁नॉटि	-10.5727
त्तम	-10.5727
▁SHA	-10.5727
▁घड़ी	-10.5727
vcf	-10.5728
▁RX	-10.5728
▁ट्रांसकोड	-10.5728
direct	-10.5729
ppen	-10.5729
▁सरलीकृत	-10.5729
▁सर्वाधिकार	-10.5729
▁अंश	-10.5729
▁भेंट	-10.5729
gtk	-10.573
button	-10.573
▁कीबाइंडिंग	-10.573
क्त	-10.573
टीएस	-10.573
▁उद्धरित	-10.573
▁आवास	-10.573
▁उच्चतर	-10.5731
▁ढूंढ़	-10.5731
जोंग	-10.5732
MacRoman	-10.5732
Hebrew	-10.5732
▁विचार	-10.5732
▁कॉन्फ़िगर	-10.5737
table	-10.5738
evanagari	-10.5739
▁पंक्तिबद्ध	-10.574
▁होएं	-10.574
▁पत्ताः	-10.574
sendmail	-10.5741
टीपी	-10.5742
▁वाक्	-10.5743
ate	-10.5744
acebook	-10.5744
END	-10.5744
▁चयनकर्ता	-10.5745
▁एक्सप्रे	-10.5745
no	-10.5746
Other	-10.5747
▁बिल्ड	-10.5747
ID	-10.5748
▁MH	-10.5749
खा	-10.5749
▁If	-10.5751
▁सकें	-10.5753
▁सांख्यिकी	-10.5754
▁प्रेष	-10.5755
▁स्टेटस	-10.5756
account	-10.5757
▁ताली	-10.5758
▁अद्यतनीकरण	-10.576
▁For	-10.5762
च्च	-10.5762
गोलि	-10.5765
▁डेक	-10.5771
▁हेडर	-10.5771
ert	-10.5773
▁डाउनलोड्स	-10.5773
▁समुच्चय	-10.5775
TO	-10.5777
▁ओपन	-10.5781
गीत	-10.5781
▁दृश्यमान	-10.5782
▁फील्ड	-10.5784
▁प्रिंट	-10.5796
CHE	-10.5797
▁हटाए	-10.58
▁दबा	-10.5801
▁बची	-10.5805
Game	-10.5806
▁सिंक	-10.5807
▁बनाएं	-10.5812
▁डी	-10.5812
▁डील	-10.5821
age	-10.5824
PG	-10.5826
Send	-10.5826
▁अनाम	-10.583
lt	-10.583
ros	-10.5833
जूद	-10.5835
▁थंडर	-10.5845
▁अंतर	-10.5845
Franc	-10.5851
▁str	-10.5857
रचना	-10.5858
▁लिपि	-10.5864
▁कमरा	-10.5866
▁Pine	-10.5867
▁निर्देशांक	-10.5867
mal	-10.5877
full	-10.5888
zip	-10.5891
▁बात	-10.5896
folders	-10.5912
▁माह	-10.5912
▁सेंड	-10.5917
rganizer	-10.5935
भौ	-10.5939
हवा	-10.5944
▁Devhelp	-10.5952
सि	-10.5959
एआर	-10.5959
ोड़	-10.5972
जोर	-10.5978
▁हाथ	-10.5981
▁उसक	-10.5983
कै	-10.5988
िला	-10.5996
▁कंटे	-10.6
▁su	-10.6006
▁फ्रें	-10.6036
▁rajesh	-10.6037
▁date	-10.6038
यतन	-10.604
▁स्प	-10.604
▁निर	-10.6043
UTC	-10.6063
जान	-10.6068
▁फैलाय	-10.6069
▁पु	-10.6089
gu	-10.61
ाइव	-10.6101
ेजर	-10.6101
▁TO	-10.611
▁पकड़	-10.6116
▁ता	-10.6119
्वा	-10.6121
▁पुन	-10.6133
▁फार्	-10.6143
ंपत्ति	-10.6151
ap	-10.6168
us	-10.6174
Res	-10.6179
ाध्य	-10.6207
▁Subject	-10.6211
cent	-10.6218
चित	-10.6222
परिक	-10.6228
िफ	-10.624
पियर	-10.6243
▁जाँचन	-10.6253
▁ab	-10.6253
▁बक्स	-10.6307
nu	-10.6313
▁ट्रे	-10.6313
▁Q	-10.6337
ument	-10.6359
LI	-10.6373
▁यू	-10.6374
▁पताका	-10.638
ियाद	-10.6381
ple	-10.6388
नहीं	-10.6392
▁प्रिय	-10.6402
सॉफ़्ट	-10.6458
निम	-10.6461
▁वार	-10.6502
rav	-10.6512
ms	-10.6516
▁एम	-10.6521
नो	-10.6523
प्रां	-10.6546
▁Gi	-10.6547
सवां	-10.6559
्पादन	-10.656
▁मिटाय	-10.6564
▁फाइ	-10.6569
मू	-10.6571
ाँ	-10.658
मी	-10.6586
▁देखे	-10.6619
मर	-10.6619
र्	-10.6635
▁day	-10.6644
▁नियुक्त	-10.6648
▁[-	-10.667
cc	-10.6673
▁हमल	-10.6677
▁रवि	-10.6679
▁R	-10.6687
वर्ड	-10.6693
ce	-10.6699
ee	-10.6729
▁To	-10.674
On	-10.6746
म्ब	-10.6757
▁send	-10.6784
स्केप	-10.6787
▁सात	-10.6788
विश	-10.6791
IR	-10.68
▁l	-10.6805
▁वेबक	-10.6833
cu	-10.6857
▁इं	-10.6887
ैनल	-10.6918
क्षेत्र	-10.6924
न्फ़	-10.6937
▁अत्य	-10.6947
▁संजीव	-10.6959
▁खींच	-10.696
▁डाल	-10.6968
त्यंत	-10.6973
▁बर्	-10.6978
ैप	-10.7005
Cc	-10.7009
▁काप	-10.7015
eco	-10.7109
▁तर	-10.7113
कार्ड	-10.713
ंगित	-10.7145
bu	-10.7153
▁खोजन	-10.7156
ाता	-10.7161
इंग	-10.7201
ps	-10.7219
▁पहुँचा	-10.7219
PL	-10.7248
RC	-10.7272
desc	-10.7314
ाधार	-10.7321
▁विल	-10.7333
▁Fi	-10.7356
▁बढ़त	-10.7357
kis	-10.7381
लस	-10.7447
ॉन	-10.7447
lit	-10.75
▁निवे	-10.7501
ेम	-10.7508
AN	-10.7511
Jo	-10.7533
सभी	-10.7537
्यूम	-10.7547
▁क्ष	-10.7548
▁Windows	-10.755
पुस्तिका	-10.7584
ir	-10.7587
ैंट	-10.7608
क्	-10.7615
रंग	-10.7619
Pri	-10.7621
ून	-10.7625
Use	-10.7651
▁पत	-10.7664
▁उलटे	-10.7676
wor	-10.7683
अज्ञात	-10.7701
अन्य	-10.7707
ver	-10.7715
`%	-10.7721
प्	-10.7744
पंक्ति	-10.7746
आधार	-10.7755
जवाब	-10.7755
सारणी	-10.778
छुपाएँ	-10.7785
date	-10.7799
विस्तार	-10.7803
▁सबक	-10.7806
अनसेट	-10.7817
app	-10.7822
पश्चिम	-10.783
evolution	-10.7831
HTTP	-10.7833
sE	-10.7833
rajesh	-10.784
RFC	-10.7849
nd	-10.7852
server	-10.7853
ांच	-10.7856
इन्	-10.7864
▁क्यू	-10.7864
dif	-10.7883
तरित	-10.789
प्ले	-10.7894
▁रू	-10.7913
▁It	-10.7927
▁बताए	-10.7934
war	-10.7962
▁दस	-10.7992
▁हैंग	-10.8003
ांक	-10.801
पिक	-10.8012
ted	-10.8012
ignature	-10.8044
र्न	-10.8047
ree	-10.8055
cks	-10.8064
▁पार्ट	-10.8066
ॉक्स	-10.8071
▁त्याग	-10.8076
▁छोट	-10.8079
ut	-10.8083
MA	-10.8093
वरण	-10.8099
पास	-10.8108
bb	-10.8109
▁सुप	-10.8112
▁min	-10.8112
ठ	-10.8121
सेर	-10.8127
▁संगठ	-10.8132
लैंड	-10.8133
नोड	-10.8138
Time	-10.8146
▁डिस्	-10.8147
Add	-10.8148
▁ज़ि	-10.8161
हीं	-10.8164
▁परिस	-10.8171
ोग	-10.8172
▁gconf	-10.8177
Cha	-10.8185
▁डिकोड	-10.8189
▁secur	-10.8189
▁जानकार	-10.8192
▁व्यवस्थ	-10.8196
older	-10.8198
▁बिल्	-10.8198
ntry	-10.8199
fer	-10.821
▁री	-10.8211
Read	-10.8211
gb	-10.8213
▁डेलिगे	-10.8217
int	-10.8221
ंब	-10.8223
▁scroll	-10.8224
di	-10.8224
▁स्पैम	-10.8224
burn	-10.8224
▁विकास	-10.8225
▁चौदह	-10.8225
▁प्रतिद्वंद्व	-10.8225
VISCII	-10.8225
celandic	-10.8225
entries	-10.8225
ownload	-10.8225
related	-10.8225
urmukhi	-10.8225
बीएसडी	-10.8225
▁--------	-10.8225
▁Gcalctool	-10.8225
▁Talk	-10.8225
▁backend	-10.8225
▁meeting	-10.8225
▁neighbor	-10.8225
▁उभारें	-10.8225
▁गेटकीपर	-10.8225
▁चौडाई	-10.8225
▁जीवनसाथी	-10.8225
▁डिफोल्ट	-10.8225
▁डेवहेल्प	-10.8225
▁डॉयलप	-10.8225
▁धन्यवाद	-10.8225
▁पाठ्यांश	-10.8225
▁प्रतिनिधि	-10.8225
▁फाउंडेशन	-10.8225
▁फैक्टोरियल	-10.8225
▁शुभकामना	-10.8225
▁श्वेत	-10.8225
▁संदेशवाहक	-10.8225
color	-10.8225
▁अवकाश	-10.8225
▁अवयव	-10.8225
▁आसंधि	-10.8225
▁क्रोएशियाई	-10.8225
▁ढांचा	-10.8225
▁फ़िंगरप्रिंट	-10.8225
▁फार्मेट	-10.8225
▁शुरु	-10.8225
ujarati	-10.8225
urkish	-10.8225
▁बधाई	-10.8225
▁बहिर्वे	-10.8225
▁ISDN	-10.8225
▁Place	-10.8225
VIDEO	-10.8225
▁एमडीआई	-10.8225
▁अभिन्यास	-10.8225
▁disable	-10.8226
▁Network	-10.8226
▁सेल्टिक	-10.8226
▁जनवरी	-10.8226
▁focus	-10.8226
▁अनुपात	-10.8226
rpc	-10.8226
▁iCalendar	-10.8226
▁इकतीसवां	-10.8226
▁दायरा	-10.8226
▁पंहुच	-10.8226
▁फूटर	-10.8226
harset	-10.8226
▁रिकॉर्ड	-10.8226
roatian	-10.8226
हुच	-10.8226
DisplayName	-10.8226
▁मैदान	-10.8226
▁पैकेज	-10.8226
एमएल	-10.8226
▁डिग्री	-10.8226
सेप्शन	-10.8226
▁कोसाइन	-10.8226
▁अधि	-10.8226
▁खरीद	-10.8226
▁श्रेणियां	-10.8226
▁पुनर्प्रेषित	-10.8226
▁रुप	-10.8226
▁आवृत	-10.8226
▁कोटियाँ	-10.8226
▁ट्रस्ट	-10.8226
▁ट्रू	-10.8226
Import	-10.8226
▁तेरह	-10.8226
▁समेटें	-10.8226
▁किताब	-10.8226
▁व्यवधान	-10.8226
▁Doe	-10.8226
▁web	-10.8226
▁डिस्कनेक्टेड	-10.8226
right	-10.8226
▁गुरू	-10.8226
▁फेंटें	-10.8226
▁filtering	-10.8226
बीसीसी	-10.8227
lzma	-10.8227
▁crash	-10.8227
▁एआई	-10.8227
▁पोकर	-10.8227
▁ब्लॉग	-10.8227
▁वरीयताएं	-10.8227
▁बनाएगी	-10.8227
▁विलम्ब	-10.8227
ority	-10.8227
विल	-10.8227
▁अठा	-10.8227
bgt	-10.8228
▁आरक्षित	-10.8228
▁घात	-10.8228
▁ऑफसेट	-10.8228
▁सुधारें	-10.8228
Cancel	-10.8229
▁रेडियो	-10.8229
▁करेगें	-10.8229
▁संरचना	-10.8229
▁पहेल	-10.8229
▁only	-10.8229
▁रोलर	-10.8229
GPG	-10.8229
▁विजेट	-10.8229
▁फेंकें	-10.8229
▁शनि	-10.823
▁आउटबॉक्स	-10.823
Ukrainian	-10.823
▁सेकण्ड्स	-10.8231
स्कोर	-10.8231
शब्दकोश	-10.8231
▁लागिन	-10.8231
▁इंस्पेक्टर	-10.8231
path	-10.8231
▁पुनर्तुल्यकाल	-10.8232
JIS	-10.8232
▁अनलोड	-10.8232
▁प्रकाशन	-10.8232
SCS	-10.8232
▁पड़ेगी	-10.8232
▁बनायेगा	-10.8232
भरकम	-10.8232
▁अनुकूलन	-10.8233
ual	-10.8233
▁लाइबेरी	-10.8234
▁बांयें	-10.8234
▁हिं	-10.8235
kar	-10.8235
ौरी	-10.8236
▁सोम	-10.8236
Authentication	-10.8236
▁बाइट	-10.8236
ace	-10.8237
▁डेमो	-10.8237
▁त्रुटियां	-10.8238
▁कोडेक्स	-10.8238
▁विषयवस्तु	-10.8239
foo	-10.8239
▁उल्टा	-10.824
▁देंगे	-10.824
Sign	-10.824
key	-10.824
▁परिवार	-10.8242
MacG	-10.8242
arsi	-10.8244
▁अदृश्य	-10.8244
▁तीर	-10.8246
▁कैप्स	-10.8247
▁सीमां	-10.8248
▁DV	-10.8248
RDF	-10.8248
▁संख्याएँ	-10.8252
own	-10.8252
Writ	-10.8253
▁बहि	-10.8253
▁बजाएं	-10.8253
lic	-10.8255
▁divisions	-10.8256
▁प्रकटन	-10.8256
▁गहराई	-10.8257
▁विभाजक	-10.826
buf	-10.8261
▁पश्चिमी	-10.8264
tool	-10.8264
योगिक	-10.8265
्षित	-10.8266
▁काल्स	-10.8268
▁प्राय	-10.8269
ken	-10.8269
पढ	-10.8269
▁सह	-10.827
lick	-10.8271
कास्ट	-10.8272
लो	-10.8272
uddy	-10.8272
वर्तन	-10.8272
▁सामने	-10.8273
#-#-#-#	-10.8274
▁चुनाव	-10.8275
▁हस्त	-10.8275
ong	-10.8278
▁यथा	-10.8279
गे	-10.8282
ied	-10.8283
दायां	-10.8283
▁रेखा	-10.8285
HK	-10.8287
शि	-10.8287
Po	-10.8287
▁plugin	-10.8297
▁status	-10.8299
▁मैच	-10.8299
▁पारम्परिक	-10.8299
▁sync	-10.8301
UIN	-10.8303
▁बड़े	-10.8307
dium	-10.8307
DN	-10.8313
▁होएँ	-10.8315
▁ग्ल	-10.832
युग	-10.8321
▁करेगी	-10.8323
▁व्यू	-10.8326
्व	-10.8331
▁टंक	-10.8339
▁bas	-10.834
▁che	-10.8344
xz	-10.8347
▁एनक्रिप्ट	-10.8348
mini	-10.8349
▁मिस	-10.8352
▁नियंत्रक	-10.8354
CD	-10.8354
कर्स	-10.8365
▁सत्य	-10.837
▁स्वत	-10.8371
OU	-10.8373
▁धन	-10.8379
▁स्केल	-10.8389
ोड	-10.8392
▁DSL	-10.8406
ाइट	-10.8406
▁टैग	-10.8407
बिया	-10.8408
▁comp	-10.8411
ब्रै	-10.8415
▁registered	-10.8417
alog	-10.8417
साओ	-10.8418
▁रूसी	-10.8419
ल्	-10.8431
▁सहित	-10.8433
▁ट्रैकिंग	-10.8441
▁सोल	-10.8446
▁देरी	-10.8446
ईं	-10.8456
▁u	-10.8461
▁Pas	-10.8466
दि	-10.8481
▁MD	-10.8484
detect	-10.8487
astes	-10.8494
▁US	-10.8501
▁नेट	-10.8501
▁error	-10.8521
जार	-10.8523
▁DB	-10.854
▁आए	-10.8544
्पलेट	-10.8545
▁Ta	-10.8552
ट्स	-10.8557
वाल	-10.8558
▁नॉ	-10.8566
वेर	-10.8573
्तरी	-10.8588
Create	-10.8589
rat	-10.859
ारी	-10.8591
PT	-10.8593
्यू	-10.8595
ैसे	-10.8601
mh	-10.8603
▁भाव	-10.8603
▁आयत	-10.8615
दीदा	-10.8627
IG	-10.8632
▁evolution	-10.8636
ोटिय	-10.8648
▁पृष्ठो	-10.8652
क्रोम	-10.8654
ाफ्ट	-10.866
pe	-10.8678
▁जीवन	-10.8688
ांश	-10.8694
लि	-10.87
▁प्रक्रम	-10.8715
▁मिले	-10.8732
are	-10.8738
▁छुपायें	-10.8754
लग	-10.8783
▁भरोसे	-10.8784
▁उपर	-10.8792
▁असफलता	-10.8801
eceive	-10.8807
ccess	-10.8817
▁सत	-10.8817
LO	-10.8861
िटर	-10.8874
दक्षिणी	-10.8877
▁गे	-10.888
▁खेले	-10.8891
vie	-10.8904
▁Folder	-10.8907
▁अभि	-10.8907
तन	-10.8911
▁साल	-10.8911
▁एसलि	-10.8914
ूना	-10.8914
ैन	-10.8914
onnect	-10.8916
▁च	-10.8917
▁हैश	-10.8941
▁Ap	-10.8942
nter	-10.8959
▁य	-10.8974
ST	-10.8978
▁जिन	-10.8995
▁लिस्ट	-10.901
बंधित	-10.9012
▁लि	-10.9021
DF	-10.9028
db	-10.9031
रात	-10.9037
दोस्त	-10.9049
parent	-10.9061
sof	-10.908
▁धार	-10.9085
▁state	-10.9091
lock	-10.9096
टो	-10.9108
▁वापसी	-10.9119
▁set	-10.9129
जीवन	-10.913
▁माइ	-10.9134
रियल	-10.9145
ीज़	-10.9158
tt	-10.9169
पिक्सल	-10.9171
bi	-10.9194
▁आलेख	-10.9195
्वेल	-10.9199
ip	-10.9204
▁उत	-10.9207
▁ऑप	-10.9208
pi	-10.9208
▁ब्	-10.9215
te	-10.9246
stdout	-10.9252
ंगर	-10.9262
दे	-10.9266
cs	-10.927
▁v	-10.9272
ध	-10.9292
ab	-10.9301
▁विसंस्थाप	-10.9307
wi	-10.9315
नि	-10.9322
वल	-10.9369
ft	-10.9371
reek	-10.9372
वेल	-10.939
ायेगा	-10.9407
▁एल	-10.941
▁ho	-10.9415
dim	-10.9416
्ला	-10.9435
.--	-10.9447
लंब	-10.9459
ाव	-10.9459
▁खींचन	-10.9466
ur	-10.9471
per	-10.9483
ry	-10.9504
ear	-10.9513
OS	-10.9516
राय	-10.9517
परी	-10.9551
▁ड्राइ	-10.9562
▁वाई	-10.96
▁मी	-10.9601
ारे	-10.9618
वॉल्यू	-10.9637
डिय	-10.9677
वार	-10.9692
▁IO	-10.9694
रंपर	-10.9697
न्ट	-10.971
क्षण	-10.972
किंग	-10.9732
▁माल	-10.974
sto	-10.9756
कान्फ	-10.9775
▁डालन	-10.9823
न्ड	-10.9828
र्ग	-10.9851
▁प्रद	-10.9874
inc	-10.9874
tem	-10.9882
▁y	-10.991
ipe	-10.9963
ढ़ा	-10.9967
र्स	-10.9993
ेन्ट	-11.0004
▁GD	-11.0027
ही	-11.0039
▁कमी	-11.0044
▁Re	-11.0072
op	-11.0083
ल्टा	-11.0148
image	-11.0152
▁माइक्रोस	-11.0159
▁कर्	-11.0187
पूर्वावलोकनः	-11.0197
िश	-11.0237
▁खा	-11.0245
yrillic	-11.025
संपीड़ित	-11.0259
ंज	-11.0267
▁बाइ	-11.0286
नर	-11.0313
▁टी	-11.0324
▁ढ़	-11.0342
▁एप	-11.0352
tip	-11.0368
▁बदलत	-11.0405
▁int	-11.0423
र्ट	-11.0427
▁gd	-11.0458
ावधि	-11.0461
▁छुपान	-11.0471
पता	-11.0476
तृ	-11.0478
lea	-11.0486
▁अध्य	-11.0521
टेशन	-11.0527
▁सर्	-11.0531
फाइल	-11.0567
▁मन	-11.0587
▁कार्यशील	-11.0604
सन्	-11.0619
वाला	-11.062
▁रूपांतर	-11.0662
लटें	-11.0687
xe	-11.0751
ायें	-11.0752
▁खिसकाय	-11.0765
यूड	-11.0774
ary	-11.0776
ption	-11.078
▁दर्श	-11.0808
▁आर्क	-11.0825
▁U	-11.0831
▁ur	-11.0833
win	-11.0836
विन्यास	-11.0843
▁रोके	-11.0844
CE	-11.0866
▁ms	-11.0875
पूर्वावलोकन	-11.0881
ान्तर	-11.0882
RG	-11.0892
▁पकड़े	-11.0901
ऑडियो	-11.0907
▁अंड	-11.0912
रोम	-11.0932
▁कॉ	-11.0942
नया	-11.0959
रद्द	-11.0963
ेग	-11.0971
सदस्यता	-11.0979
िम	-11.0997
केवल	-11.1004
चौड़ाई	-11.1008
▁flo	-11.1009
गलत	-11.1014
▁इत	-11.1021
▁घ	-11.1024
शेष	-11.103
Do	-11.1048
शो	-11.1053
▁फ्ल	-11.1064
मार्क	-11.1066
सक्षम	-11.1067
unsa	-11.1073
im	-11.1091
समाप्त	-11.1098
बड़ा	-11.1108
▁ति	-11.1119
अति	-11.112
लॉक	-11.1126
उपभोक्ता	-11.1131
उदाहरण	-11.1134
co	-11.1141
बुल	-11.1145
लंबवत	-11.1159
पीछे	-11.1163
्लिक	-11.1165
Devhelp	-11.1167
▁आख	-11.1169
मिलीसेकेंड	-11.1169
बिट	-11.1178
error	-11.1182
not	-11.1188
Out	-11.1189
lected	-11.1189
SSL	-11.1192
▁बाल	-11.1197
▁व्य	-11.1203
चयनक	-11.1204
▁AP	-11.1206
codec	-11.1212
ीबी	-11.1213
ोल्यूशन	-11.1216
सरल	-11.1224
गुल	-11.1224
style	-11.1237
ding	-11.1241
-#	-11.1246
द्ध	-11.1248
संगत	-11.1296
events	-11.1297
कड़ी	-11.1297
बर्	-11.1302
ation	-11.1312
KB	-11.1323
dat	-11.134
पार	-11.1378
▁छिपा	-11.1383
▁जाएग	-11.1404
▁हल्क	-11.1405
▁t	-11.1413
▁नम	-11.1442
मार	-11.1444
▁मिटाएं	-11.1446
एंगे	-11.1456
▁इक्क	-11.1475
टेड	-11.1489
UI	-11.1498
▁निर्ध	-11.1499
▁बराबर	-11.1505
ग्रूप	-11.1506
▁दुक्क	-11.1506
▁सांख्यिक	-11.1509
▁परिच	-11.1512
▁तरीक	-11.1517
▁फ्र	-11.1517
योजन	-11.1519
▁जापान	-11.152
SCII	-11.1521
▁Ja	-11.1528
▁अल	-11.1533
scape	-11.1535
बेस	-11.1537
▁सचेत	-11.1539
षित	-11.1543
▁ब्राउ	-11.1547
▁पुनरावृत्त	-11.1547
▁ऑडिय	-11.1549
▁tim	-11.155
▁पश्च	-11.1551
▁छोड	-11.1552
Message	-11.1552
AP	-11.1553
▁न्यूज	-11.1554
होम	-11.1554
▁फेंक	-11.1554
Repl	-11.1555
▁रोबॉट	-11.1556
auto	-11.1557
ication	-11.1557
▁डिस्कनेक्ट	-11.1558
िस्ता	-11.1558
र्ध्वाधर	-11.1558
CalI	-11.1558
▁शुक्र	-11.1559
horiz	-11.1559
Screen	-11.1559
Challenge	-11.1559
Common	-11.1559
OfTheMeeting	-11.1559
Organi	-11.1559
PATTERN	-11.1559
Picture	-11.1559
Visual	-11.1559
errno	-11.1559
gvim	-11.1559
html	-11.1559
अपराह्न	-11.1559
कॉन्क्वेरर	-11.1559
मतिभ्रम	-11.1559
रअंदाज	-11.1559
▁Applicable	-11.1559
▁Archive	-11.1559
▁Resolution	-11.1559
▁Roller	-11.1559
▁migrator	-11.1559
▁अंतर्वेशित	-11.1559
▁अनुरोध	-11.1559
▁अपरीक्षित	-11.1559
▁अलार्म	-11.1559
▁असफ़ल	-11.1559
▁आइकन	-11.1559
▁आइलैंड्स	-11.1559
▁एक्सेसेबेल	-11.1559
▁क्लोत्सकी	-11.1559
▁गुलाबी	-11.1559
▁ग्रुपवाइज़	-11.1559
▁घनत्व	-11.1559
▁चिकनापन	-11.1559
▁ज़ेनेरिक	-11.1559
▁टेट्रावेक्स	-11.1559
▁डिवायस	-11.1559
▁डॉयलपैड	-11.1559
▁तकनालॉज़ी	-11.1559
▁थ्रेसहोल्ड	-11.1559
▁प्रतियोगिता	-11.1559
▁प्रविष्ठि	-11.1559
▁फेसबुक	-11.1559
▁बैंडविड्थ	-11.1559
▁मनुष्य	-11.1559
▁रजिस्ट्रार	-11.1559
▁व्यवस्थापक	-11.1559
▁शतरंज	-11.1559
▁शीर्षकविहीन	-11.1559
▁शुरुआत	-11.1559
▁संवर्द्ध	-11.1559
▁स्मृति	-11.1559
▁हिन्दी	-11.1559
toggle	-11.1559
▁टिमटिमा	-11.1559
▁फंक्शन	-11.1559
▁मॉनीटर	-11.1559
separate	-11.1559
▁कामकाज	-11.1559
▁डेस्कटोप	-11.1559
▁नक्शा	-11.1559
▁मिश्र	-11.1559
Important	-11.1559
फ्रांस	-11.1559
▁left	-11.1559
▁खिलाडियो	-11.1559
▁फ़ायर	-11.1559
▁भेंजे	-11.1559
अरेबिक	-11.1559
▁उद्धृत	-11.1559
▁एचटी	-11.1559
▁जल्द	-11.1559
▁दाँया	-11.1559
▁सूइट	-11.1559
Xnest	-11.1559
▁लेखपत्र	-11.1559
uire	-11.1559
ब्लाँक	-11.1559
▁प्रतिविलोप	-11.1559
▁महजोंग	-11.1559
▁हाउस	-11.1559
raditional	-11.1559
▁तालिका	-11.1559
▁फारसी	-11.1559
▁अवरोध	-11.1559
▁स्क्रीनपाठक	-11.1559
▁लटकत	-11.1559
▁मुखरा	-11.1559
▁NFS	-11.1559
▁Pause	-11.1559
▁restore	-11.1559
▁हाशिया	-11.1559
Book	-11.1559
ट्रिगर	-11.1559
▁होस्टनेम	-11.1559
▁pluginview	-11.1559
Restart	-11.1559
▁डेलिवरी	-11.1559
▁श्रेणियाँ	-11.1559
क्रियान्व	-11.1559
▁गेलियन	-11.1559
▁आरपार	-11.1559
ऊर्ध्वाधर	-11.1559
▁खीचें	-11.1559
▁सहारा	-11.1559
▁चमकाएँ	-11.1559
▁libburn	-11.1559
▁वार्ष	-11.1559
▁बुध	-11.1559
▁एक्सेसेबल	-11.1559
कॉन्फ़	-11.1559
▁शर्त	-11.1559
▁uid	-11.1559
▁खदान	-11.156
▁मंगल	-11.156
▁एमडी	-11.156
▁बढ़ाए	-11.156
label	-11.156
▁वित्तीय	-11.156
▁एपीफैनी	-11.156
▁ऑटो	-11.156
टोंगा	-11.156
▁इंचेस	-11.156
▁पुनर्वि	-11.156
▁परिस्थितिय	-11.156
▁विकासकर्ता	-11.156
▁pix	-11.156
ूठ	-11.156
jabber	-11.1561
▁जर्नल	-11.1561
▁मल्टीमीडिया	-11.1561
▁डमी	-11.1561
▁whe	-11.1561
▁कॉम्प	-11.1561
Remo	-11.1561
▁Maildir	-11.1561
ABLE	-11.1562
▁address	-11.1562
▁होमपेज	-11.1562
zone	-11.1562
▁कैरेट	-11.1562
्लैश	-11.1562
▁Net	-11.1563
▁ऑफ़	-11.1563
▁Both	-11.1563
ides	-11.1563
▁प्रदाय	-11.1563
पैगो	-11.1564
▁उपस्क्रिप्ट	-11.1564
ाँट	-11.1564
▁बीजी	-11.1564
▁पंक्तियां	-11.1564
view	-11.1564
▁पाँच	-11.1564
ब्ब	-11.1564
▁मैसेजिंग	-11.1565
▁सम्पन्न	-11.1565
▁छोडें	-11.1565
KID	-11.1566
▁प्रतिदिन	-11.1567
▁तुर्कीश	-11.1567
bal	-11.1567
प्ति	-11.1567
▁उत्तम	-11.1568
पोलि	-11.1569
▁रेखांकित	-11.1569
dump	-11.157
▁स्वरूपण	-11.157
▁sound	-11.1572
▁लिखेगी	-11.1572
num	-11.1575
ेलोप	-11.1575
▁बाधित	-11.1576
▁~/.	-11.1576
अग	-11.1577
▁कैमर	-11.1577
Start	-11.1577
▁क्रियाएँ	-11.1577
▁मेजबाननाम	-11.1578
▁चेहरे	-11.1579
▁VI	-11.1579
▁टाइलें	-11.158
manager	-11.158
टर्न	-11.1581
Escape	-11.1583
▁स्थानांतरण	-11.1585
▁#%	-11.1585
एसएस	-11.1586
▁घटनाएँ	-11.1586
▁गैल	-11.1586
utt	-11.1587
गुआड	-11.1587
ॉल्ट	-11.1589
▁गु	-11.159
LCD	-11.1592
जीलैंड	-11.1593
lan	-11.1593
प्लेट	-11.1593
▁अकेल	-11.1593
atte	-11.1594
▁पार्स	-11.1594
fter	-11.1594
▁प्लगइन्स	-11.1595
solve	-11.1595
rgb	-11.1595
तुल्यकालि	-11.1597
लपेटें	-11.1597
entry	-11.1598
ASCII	-11.1598
ंडा	-11.16
▁नक	-11.1601
lse	-11.1602
काओ	-11.1604
ols	-11.1604
▁सजीव	-11.1605
▁आयें	-11.1605
active	-11.1608
▁त्रुटियाँ	-11.1609
▁डिकोडर	-11.161
▁दुक्की	-11.1612
▁बराबरी	-11.1613
▁इमेल	-11.1614
▁कीवर्ड	-11.1614
▁अनचाह	-11.1616
other	-11.1618
संशोधनीय	-11.1626
ीकोड	-11.1627
जेट	-11.1628
Mon	-11.1629
ाउण्ड	-11.1634
▁बनाये	-11.1634
ose	-11.1634
▁गतिः	-11.1635
▁फुट	-11.1637
▁बद	-11.1637
▁बक्सा	-11.1637
Alt	-11.1642
module	-11.1647
▁wo	-11.1648
दान	-11.1649
खड़ा	-11.165
▁निकट	-11.165
▁पे	-11.165
▁नामस्थान	-11.1651
महीन	-11.1652
ज़िप	-11.1653
स्टार्	-11.1656
काली	-11.1656
▁filter	-11.1659
यू	-11.1659
▁trans	-11.1662
▁टोन	-11.1666
▁पूछता	-11.1668
ॉन्ट	-11.1669
ay	-11.167
▁वर्जि	-11.167
▁डॉट	-11.1673
ne	-11.1679
my	-11.1684
▁हटाकर	-11.1689
doc	-11.169
ैनी	-11.1693
▁उत्प्रवासन	-11.1694
▁ob	-11.1702
▁छुपाने	-11.1705
tch	-11.1706
▁do	-11.1709
▁सू	-11.1709
dirs	-11.1714
▁गणक	-11.1721
प्रत्या	-11.1725
बिक	-11.1725
rev	-11.1726
▁फिक्स	-11.1727
▁काटे	-11.1729
▁रानी	-11.1733
▁छांटे	-11.1733
▁स्लाइडर	-11.174
mp	-11.1746
▁b	-11.1746
ॉ	-11.1748
▁भंडारन	-11.1749
TW	-11.1749
▁जुड़ें	-11.1749
ीयर	-11.1753
▁झ	-11.176
▁स्टाक	-11.1763
▁दर्शक	-11.1767
कोटा	-11.1772
ाउ	-11.1773
▁ICS	-11.178
MacC	-11.1785
ीमीटर	-11.1789
ia	-11.1802
ुलेटर	-11.1802
fe	-11.1807
▁आया	-11.1816
▁गहरा	-11.1819
▁खाती	-11.1821
▁पूर्वाह्न	-11.1825
यिक	-11.1831
Fr	-11.1831
▁ज्यार्जिय	-11.1832
▁बी	-11.1833
rr	-11.1834
▁समापन	-11.1837
bz	-11.184
ave	-11.1847
▁कलाकार	-11.1848
नोम	-11.1849
भाजन	-11.1851
श्य	-11.1851
▁भू	-11.188
▁घटान	-11.1885
▁पेजर	-11.1892
▁भारत	-11.1894
▁Vo	-11.1897
ोटे	-11.1901
")	-11.1907
tw	-11.1927
डोर	-11.1928
ट्र	-11.193
▁pt	-11.1934
evel	-11.1938
ाले	-11.1956
▁गिरत	-11.1961
षिक	-11.1968
▁बाक्स	-11.1971
▁निवेद	-11.198
▁Gro	-11.1992
▁items	-11.1997
PAL	-11.2
मोंट्	-11.2002
ice	-11.2008
पेज	-11.2009
वैध	-11.2011
पा	-11.2018
मैक	-11.2036
न्ह	-11.2038
▁प्रे	-11.2041
▁संग	-11.2051
क्रिया	-11.2053
यां	-11.2063
▁Klo	-11.2064
फि	-11.207
▁रखे	-11.207
त्रण	-11.2073
alle	-11.2076
▁पश्चिम	-11.208
अपारदर्शी	-11.2089
ंद्र	-11.2098
▁मार्क	-11.21
▁पलट	-11.2113
लुसि	-11.213
टर्म	-11.2137
िल	-11.2143
बुज	-11.2153
र्थ	-11.2178
pply	-11.2179
aga	-11.2219
▁DA	-11.2232
बाक्स	-11.2238
vc	-11.2252
▁ओ	-11.2256
LL	-11.2266
नेशिया	-11.2273
isc	-11.2276
भाव	-11.229
ंबा	-11.2305
ग्राम	-11.2314
सेंज	-11.232
ृष्ट	-11.2336
nor	-11.234
हार	-11.2341
▁शीट	-11.2342
TC	-11.2346
ench	-11.235
▁इस्ट	-11.236
कम	-11.2373
▁सकेंग	-11.2375
▁no	-11.2377
डेशन	-11.2385
onts	-11.2388
ser	-11.2402
रिक	-11.2415
गाड	-11.2419
▁ढूंढे	-11.244
▁पी	-11.2447
कार्यक्षेत्र	-11.2468
▁menu	-11.2484
define	-11.2487
माना	-11.2489
save	-11.251
▁हा	-11.251
▁मेलर	-11.2519
ुवै	-11.2532
UP	-11.2538
▁विसंपीड़	-11.2552
▁पूर्वा	-11.2559
्पन्न	-11.2608
ैब	-11.2632
▁आय	-11.2636
▁टैं	-11.267
▁Tr	-11.2673
▁वाम	-11.2673
ोर	-11.2674
▁boo	-11.2676
▁Com	-11.268
यर्स	-11.2683
▁सक	-11.2687
▁क्रोन	-11.27
▁अस	-11.2706
ix	-11.2709
वधि	-11.2713
PS	-11.2764
▁इंटरफ	-11.2769
POP	-11.2775
▁बायी	-11.2786
▁चेंज	-11.2808
हो	-11.2821
संदेश	-11.2823
्ल	-11.2829
रि	-11.2831
▁ट्यू	-11.2842
विया	-11.2844
▁गुआ	-11.2852
ction	-11.2855
▁परत	-11.2904
्रु	-11.2907
ुर	-11.2915
▁enco	-11.2921
ORB	-11.2922
स्पे	-11.2925
AL	-11.2949
arm	-11.2999
nde	-11.3045
Cyrillic	-11.3062
ेजी	-11.3063
▁इतन	-11.3087
▁बल्	-11.3103
lz	-11.3114
ीडी	-11.3129
▁कंप	-11.316
▁number	-11.3171
▁प्रलेख	-11.3191
▁उज	-11.3204
िड	-11.3228
ाक्षर	-11.3241
भ	-11.326
ीत	-11.3314
वो	-11.3352
▁V	-11.3364
▁पड़न	-11.3372
ंपर	-11.3381
▁विलो	-11.3404
नु	-11.346
▁ट्रै	-11.3469
▁इंड	-11.3478
id	-11.349
▁d	-11.3507
लिये	-11.3539
लियन	-11.3583
रित	-11.3583
▁बुर	-11.3588
ेज़	-11.3601
ning	-11.3616
▁साम	-11.3651
ुना	-11.3667
▁वितर	-11.3679
AT	-11.3694
लेट	-11.3695
पु	-11.37
▁सुन	-11.3703
स्	-11.3718
राम	-11.3723
ौ	-11.3749
छल	-11.3763
िव	-11.377
emp	-11.3775
आटोडिटेक्टर	-11.3776
▁mm	-11.3785
▁जात	-11.381
ंगे	-11.3825
▁एड	-11.3847
▁col	-11.3894
ैरो	-11.3906
ीला	-11.3922
ियर	-11.3943
ीओ	-11.3984
▁पाल	-11.399
नू	-11.3992
ोरिथम	-11.3998
पुर	-11.4014
refo	-11.4034
ho	-11.4034
लेना	-11.4061
र्म	-11.4081
eta	-11.4096
NT	-11.4099
▁St	-11.412
▁Su	-11.4125
▁लिय	-11.4156
▁मेर	-11.4157
count	-11.4205
ुआ	-11.4232
स्ति	-11.4243
ल्यू	-11.4246
उन्	-11.4252
top	-11.4254
tree	-11.4269
▁संक्षिप्	-11.4272
▁रे	-11.4275
▁आरेख	-11.4279
eadcd	-11.4288
डियन	-11.4297
ca	-11.4314
▁ऑ	-11.4315
ेलेना	-11.432
मंजि	-11.4338
्यूटर	-11.4353
संपर्क	-11.436
यु	-11.4364
▁आउटब	-11.4367
MAP	-11.4368
लगाने	-11.4375
गाने	-11.438
oc	-11.4387
टेम	-11.4392
लोम	-11.4408
इड	-11.4424
ेसो	-11.4434
डबल्यू	-11.4454
▁nl	-11.446
nlink	-11.4483
त्रुटि	-11.4486
चर	-11.4488
▁भेजे	-11.4503
▁बल	-11.451
ेंगो	-11.456
ोन	-11.4579
regi	-11.4584
येगा	-11.4594
ाइ	-11.4604
्षण	-11.463
अम्	-11.4633
ck	-11.4647
▁उछ	-11.4655
देह	-11.4689
कैम	-11.4695
्यस्त	-11.4695
▁पिक्स	-11.47
ोब	-11.4707
▁जीपी	-11.4732
▁एन	-11.4733
ट्यून	-11.4767
▁बेक	-11.4773
▁मृ	-11.4785
ताएँ	-11.4786
म्प	-11.4793
श्चात्	-11.4796
ेय	-11.4804
▁ग्र	-11.4847
रेशन	-11.4848
▁options	-11.4855
िंब	-11.487
टें	-11.4877
ुड	-11.4879
ढ़	-11.4901
CI	-11.4907
▁ग्री	-11.4909
ल्क	-11.491
एवोल्यूशन	-11.4911
nding	-11.4912
्क	-11.4914
रतें	-11.4915
्किल	-11.4918
▁Mac	-11.4923
▁निर्	-11.4944
ोआ	-11.4948
ाइंटर	-11.4986
▁सै	-11.501
न्	-11.5012
hi	-11.5015
ach	-11.5027
िटी	-11.5036
▁टे	-11.5038
▁खु	-11.5046
तक	-11.5067
mple	-11.507
gi	-11.5087
ko	-11.5101
um	-11.5105
▁app	-11.5112
▁T	-11.5123
gra	-11.5157
al	-11.5168
कूटशब्द	-11.5174
स्थान	-11.5181
▁हेल	-11.5182
▁लॉ	-11.519
defin	-11.5204
GE	-11.5237
amil	-11.5241
▁आंकड	-11.5247
ंप	-11.5264
ine	-11.5264
आईडी	-11.5271
▁सामन	-11.5358
लाग	-11.5363
ॉक	-11.5364
सहेजें	-11.5386
मोंटे	-11.5405
roman	-11.5411
▁आन	-11.5437
ड़ा	-11.5456
लें	-11.5459
gr	-11.5467
जोड़	-11.5472
ank	-11.5476
द्वारा	-11.5485
ोने	-11.5512
▁द्वि	-11.5515
टि	-11.5525
▁टै	-11.5528
विन	-11.5531
त्त	-11.5534
स्प	-11.5535
▁GC	-11.5546
ज्ञापन	-11.5557
सूर्	-11.5559
▁दिला	-11.5561
▁एक्सेस	-11.5577
els	-11.5597
ेटर	-11.564
नक़ल	-11.5656
गिन	-11.5662
pu	-11.5701
▁बतात	-11.5701
▁खोले	-11.571
यूक्रेन	-11.5715
▁नव	-11.5721
▁विड	-11.5723
संख्या	-11.5731
▁लौट	-11.5758
Creat	-11.5779
▁इथ	-11.5792
ऑफ़लाइन	-11.5795
बु	-11.5806
ल्गोरिथ	-11.5809
्न	-11.5812
▁वै	-11.5819
add	-11.5821
वर्तमान	-11.5826
निष्क्रिय	-11.5842
मन	-11.5846
▁माइन	-11.5863
ार्ड	-11.5864
टैब	-11.5865
लोक	-11.5868
नीचे	-11.5871
विषय	-11.5873
▁चा	-11.5876
HE	-11.5883
एड	-11.5893
▁बह	-11.5916
)_	-11.593
▁red	-11.5934
बोर्ड	-11.5939
▁बढ़ा	-11.5951
event	-11.5965
ग्री	-11.597
संपादन	-11.5974
स्थ	-11.598
यूरोप	-11.5983
START	-11.601
बग	-11.6011
लागू	-11.6024
केंट	-11.6026
डाउन	-11.6026
निजी	-11.603
प्रति	-11.6033
गनोम	-11.604
ोसिय	-11.604
टाइप	-11.6041
कॉपी	-11.6042
lo	-11.6042
संबंध	-11.6044
FO	-11.6046
चित्र	-11.6047
प्रदर्शन	-11.6049
बन्द	-11.6051
ांट	-11.6054
[	-11.6055
ester	-11.6057
बॉ	-11.6059
शब्दकूट	-11.6077
आगे	-11.6078
ज्यादा	-11.608
गुए	-11.6085
ऑनलाइन	-11.6092
सुरक्षा	-11.6092
संलग्न	-11.6094
▁खत	-11.6096
version	-11.6098
पिक्सेल	-11.6098
▁आग	-11.6102
हुआ	-11.6103
गुप्त	-11.6106
URL	-11.6108
चक्कर	-11.6108
कलाकार	-11.6109
समापन	-11.6123
आउटलुक	-11.6125
▁बढ़ान	-11.6125
प्राधिकार	-11.6127
र्जियाई	-11.6128
र्गत	-11.6131
मूलभूत	-11.6133
registered	-11.6137
पूर्वाह्न	-11.6138
पट्ट	-11.6149
जंक	-11.6151
जैस	-11.6152
ईमेल	-11.6152
विशिष्ट	-11.6153
निर्गमक	-11.6154
▁निष्पाद	-11.6155
प्रतीक	-11.6157
निर्देशांक	-11.6158
संतृप्ति	-11.6158
अरब	-11.6159
कॉन्फ	-11.6159
free	-11.616
बिंदु	-11.6161
टैग	-11.6162
DSL	-11.6162
पिछले	-11.6162
पठन	-11.6162
किनारा	-11.6168
Pine	-11.6174
ऑफ	-11.618
PGP	-11.6184
टोकन	-11.6185
ब्रा	-11.6191
▁बूल	-11.6194
रूसी	-11.6196
विफलता	-11.6203
पठनीय	-11.6206
्ज	-11.6213
यम	-11.6214
author	-11.6215
उत्	-11.6216
application	-11.6216
ाथी	-11.6219
ुश	-11.6219
फ़ोल्डर्स	-11.6226
pre	-11.6229
इसव	-11.623
कू	-11.6233
भाग	-11.6238
▁पंजीक	-11.624
AM	-11.6248
भारी	-11.6255
▁एकत्र	-11.6256
▁साद	-11.6261
ोर्ड	-11.6261
!!	-11.6264
स्टाक	-11.6271
रें	-11.6275
शील	-11.6278
ख़	-11.629
▁अं	-11.6297
चि	-11.6297
▁छुपा	-11.6301
▁स्ट्री	-11.6302
dis	-11.6304
ync	-11.6311
▁सेंस	-11.6312
bili	-11.6312
ize	-11.6335
▁pa	-11.6345
▁असम	-11.6362
जै	-11.6365
thi	-11.6365
लन	-11.637
comp	-11.6383
त्रि	-11.6383
क्री	-11.6393
es	-11.6393
▁जायेग	-11.6394
erver	-11.6394
▁ट्री	-11.6402
▁पांचव	-11.6407
▁फॉर	-11.6421
ल्ट	-11.6423
जोड़े	-11.6427
साम	-11.6431
तरण	-11.647
ress	-11.6474
ctive	-11.6481
▁खाँच	-11.6483
▁पुनर्नि	-11.6484
ेंड	-11.649
▁फाइलो	-11.6491
मांड	-11.6495
▁अनुकूल	-11.65
मुख	-11.6502
▁मूव	-11.6505
My	-11.6505
वाइज	-11.6506
्ण	-11.6506
▁तुर्क	-11.6508
▁सामग्र	-11.6509
face	-11.6521
▁व्यव	-11.6524
anager	-11.6524
▁कॉन्फ़िग	-11.6525
घटान	-11.6526
दों	-11.6529
पासा	-11.6533
▁इकाइय	-11.6537
दीव	-11.6537
▁ऑउट	-11.6537
din	-11.6538
▁निर्गम	-11.6539
▁संस	-11.654
▁बांये	-11.654
▁सिकोड़े	-11.6541
ूरा	-11.6541
▁ज्य	-11.6542
▁प्रस्तुत	-11.6543
ंगठन	-11.6546
ुणा	-11.6546
krainian	-11.6548
ort	-11.6548
िकी	-11.6549
नुसार	-11.6549
▁मॉड	-11.6549
▁दोनो	-11.655
▁मैसेज	-11.655
▁विश्व	-11.6551
▁ढूँढ	-11.6552
रोधी	-11.6552
niversa	-11.6553
▁ग्राफिक	-11.6556
▁असंपीड	-11.6556
serve	-11.6557
▁बढ	-11.6557
▁zoom	-11.6557
क्रिप्ट	-11.6557
▁डिफ़ॉल	-11.6557
rogram	-11.6558
▁श्रेणिय	-11.6558
वर्धक	-11.6558
▁दस्ताव	-11.6558
Display	-11.6558
▁निर्दिष्	-11.6558
▁Dev	-11.6559
▁रजिस्ट	-11.6559
ब्रेरी	-11.6559
addressbook	-11.6559
मैक्सिको	-11.6559
▁आपूर्ति	-11.6559
▁टेलेक्स	-11.6559
▁सार्वभौमिक	-11.6559
source	-11.6559
▁Object	-11.6559
▁छायांक	-11.6559
▁टेलिप	-11.6559
Delegate	-11.6559
Refresh	-11.6559
ertigo	-11.6559
hagadelic	-11.6559
schema	-11.6559
क्रिसमस	-11.6559
डाउसन	-11.6559
देवनागरी	-11.6559
पीजीपी	-11.6559
रेनहाइट	-11.6559
व्हाइटह	-11.6559
सेल्सियस	-11.6559
▁Codec	-11.6559
▁Config	-11.6559
▁PWLIB	-11.6559
▁backup	-11.6559
▁bottom	-11.6559
▁increment	-11.6559
▁license	-11.6559
▁proxy	-11.6559
▁अंतर्राष्ट्रीय	-11.6559
▁अक्टूबर	-11.6559
▁अनुक्रमणिका	-11.6559
▁अन्तराल	-11.6559
▁अपंजीकृत	-11.6559
▁अप्रैल	-11.6559
▁आगंतुक	-11.6559
▁आर्गुमेंट्स	-11.6559
▁इआग्नो	-11.6559
▁ईटैलिक	-11.6559
▁एटामिक्स	-11.6559
▁ओडेसा	-11.6559
▁कंट्रोल	-11.6559
▁क्लॉन्डिके	-11.6559
▁खर्च	-11.6559
▁गेटवे	-11.6559
▁ड्रैग	-11.6559
▁दीर्घवृत	-11.6559
▁दृष्टिगोचर	-11.6559
▁धूसर	-11.6559
▁नक़्श	-11.6559
▁नीदरलैंड्स	-11.6559
▁पदावनत	-11.6559
▁पद्धति	-11.6559
▁पुनरावृति	-11.6559
▁प्रतिनिधित्व	-11.6559
▁फैक्टराइज	-11.6559
▁बधाइयाँ	-11.6559
▁ब्रिटिश	-11.6559
▁मजबूत	-11.6559
▁विक्रेता	-11.6559
▁श्वानपुच्छ	-11.6559
▁सिंक्रोनाइज़	-11.6559
▁सिल्फीड	-11.6559
▁सोलोमन	-11.6559
▁स्तीफा	-11.6559
▁स्प्रेड	-11.6559
▁स्वयंभू	-11.6559
▁स्वामित्व	-11.6559
rash	-11.6559
अंतर्निहित	-11.6559
तीव्र	-11.6559
▁झंडे	-11.6559
▁रणनीति	-11.6559
value	-11.6559
ब्रुनेई	-11.6559
▁result	-11.6559
▁आंशिक	-11.6559
▁एम्बेड	-11.6559
▁कुंजियां	-11.6559
▁कैनवास	-11.6559
▁जुलाई	-11.6559
▁डिसकनेक्टेड	-11.6559
▁ब्राजील	-11.6559
▁माडल	-11.6559
▁सख्त	-11.6559
▁subdir	-11.6559
▁इनलाइल	-11.6559
▁परंपरागत	-11.6559
▁फाईलो	-11.6559
▁मिलीमीटर्स	-11.6559
▁श्रीमती	-11.6559
▁सर्जक	-11.6559
system	-11.6559
Gadu	-11.6559
▁room	-11.6559
▁ग्रेडियन	-11.6559
▁रेकोर्ड	-11.6559
▁स्पर्श	-11.6559
▁चिपकाएं	-11.6559
▁लाभांश	-11.6559
▁क्वेरी	-11.6559
▁बरबादी	-11.6559
fatal	-11.6559
हांगकांग	-11.6559
ल्गारिया	-11.6559
Enable	-11.6559
▁प्रिन्ट	-11.6559
▁Dvd	-11.6559
▁जेब्रा	-11.6559
▁दृष्टि	-11.6559
▁मलेशिय	-11.6559
▁सड़क	-11.6559
Status	-11.6559
एचए	-11.6559
▁एनक्रिप्शन	-11.6559
▁दुर्बल	-11.6559
Login	-11.6559
▁Catalog	-11.6559
▁डेलिमिटर	-11.6559
▁Bug	-11.6559
▁घूम	-11.6559
uality	-11.6559
uery	-11.6559
▁Task	-11.6559
टोरियल	-11.6559
▁फ़ॉर्मेट	-11.6559
साइफ	-11.6559
नोवो	-11.6559
▁बुधवार	-11.6559
▁मंगलवार	-11.6559
▁शुक्रवार	-11.6559
▁योगदानकर्ता	-11.6559
▁सोमवार	-11.6559
▁ढू	-11.6559
▁unregistered	-11.6559
▁टीएलएस	-11.6559
▁ट्रांसपोर्ट	-11.6559
jects	-11.6559
▁']'	-11.656
▁पत्रिका	-11.656
▁लिथु	-11.656
▁झांक	-11.656
▁DUE	-11.656
▁उपहार	-11.656
गैंबिय	-11.656
▁विन्डो	-11.656
िष्ठा	-11.656
xmldb	-11.656
बुडा	-11.656
▁मालिक्यूल	-11.656
▁स्लोव	-11.656
▁कनाडा	-11.656
▁रेडियन	-11.656
आरएल	-11.656
▁दुहरायें	-11.656
▁स्लाट	-11.656
ँख	-11.656
▁जन्म	-11.656
पादिका	-11.656
▁zooming	-11.656
▁वरीय	-11.656
▁फान्ट	-11.6561
मेटाडाटा	-11.6561
▁इच्छ	-11.6561
▁मार्च	-11.6561
ैक्ट	-11.6561
लापन	-11.6561
▁SVCD	-11.6561
▁ओएस	-11.6561
▁कूटलेखन	-11.6561
▁हॉप	-11.6561
▁!!!	-11.6561
spam	-11.6561
▁मिमी	-11.6562
▁एलडी	-11.6562
▁फीडबैक	-11.6562
▁NOT	-11.6562
तुर्किश	-11.6562
▁ग्राफिक्स	-11.6562
CRE	-11.6562
Pref	-11.6562
▁कांफ	-11.6562
र्षों	-11.6562
▁चढ़ा	-11.6562
▁आजमाएँ	-11.6562
▁गाइड	-11.6562
▁scrolling	-11.6563
theme	-11.6563
म्सट	-11.6563
▁निरीक्षक	-11.6563
राग्व	-11.6563
स्टोनिया	-11.6563
▁अल्प	-11.6563
▁हेक्स	-11.6563
▁फ्लोट	-11.6564
ulk	-11.6564
versal	-11.6564
ब्लैं	-11.6564
▁समग्र	-11.6564
▁जुड	-11.6564
▁माइन्स	-11.6564
रूसल	-11.6565
contact	-11.6565
▁निम्नतम	-11.6565
बैजर	-11.6565
▁अभिगम्यता	-11.6565
▁बाँट	-11.6566
ener	-11.6566
▁चक्र	-11.6566
▁हूं	-11.6567
▁मित्र	-11.6567
▁टाइम	-11.6567
▁दिखाएगा	-11.6567
VAL	-11.6568
Auth	-11.6569
अल्जी	-11.6569
PPM	-11.6569
▁मालः	-11.6569
ज़ू	-11.6569
स्करण	-11.657
▁उठा	-11.657
▁Control	-11.6571
प्रांत	-11.6571
▁फ्लैश	-11.6571
मात्र	-11.6571
▁जून	-11.6572
नशीलता	-11.6573
▁IPv	-11.6573
▁दायाँ	-11.6573
▁एनिमे	-11.6573
एथे	-11.6573
टोमे	-11.6573
थवा	-11.6574
▁कांगो	-11.6574
▁कैलि	-11.6575
ुप्त	-11.6575
uation	-11.6575
▁पन्ना	-11.6575
शॉट	-11.6576
लिवरी	-11.6576
data	-11.6577
▁वित्त	-11.6577
सत्य	-11.6577
▁शटर	-11.6577
▁पुनरावृत्ति	-11.6578
▁डाइस	-11.6578
utomati	-11.6578
▁हंगर	-11.6579
▁बीयर	-11.6579
elp	-11.658
▁सूचनार्थ	-11.6581
▁Dj	-11.6581
रवरी	-11.6582
्जेन्ट	-11.6582
fli	-11.6583
auve	-11.6583
edge	-11.6583
▁प्रत्यय	-11.6583
▁फिंगर	-11.6583
▁मानिटर	-11.6584
▁निचला	-11.6586
▁आठ	-11.6588
लोकन	-11.6588
▁पैडिंग	-11.6588
▁स्टेट्स	-11.6588
lanc	-11.6589
ntl	-11.659
Ke	-11.659
dev	-11.6591
नौ	-11.6593
▁डायल	-11.6594
▁कुमार	-11.6595
ollow	-11.6595
▁आचरण	-11.6595
ल्टर	-11.6595
▁परिभाषा	-11.6596
▁तहत	-11.6599
शिया	-11.6599
▁पीडीएफ	-11.66
▁पाएं	-11.6601
▁अवर्गीकृत	-11.6605
▁पाउंड	-11.6605
▁na	-11.6605
मतिया	-11.6605
ece	-11.6606
चीत	-11.6608
्यूरि	-11.6613
मेशन	-11.6613
End	-11.6615
elete	-11.6616
vid	-11.6616
मुखी	-11.6616
▁मूवी	-11.6617
रूपण	-11.6617
▁रेड	-11.6618
▁"="	-11.6618
▁टैन	-11.6619
बांग्	-11.6623
▁कठिनता	-11.6624
विय	-11.6627
▁संस्क	-11.663
tal	-11.663
▁थ्रेडिंग	-11.6631
▁रूका	-11.6631
▁फ़ॉर	-11.6632
▁संघ	-11.6635
▁परिवर्धक	-11.6637
▁बुद्ध	-11.6638
ोस्टन	-11.6639
जुए	-11.664
▁सोच	-11.6643
manually	-11.6645
▁नोर	-11.6646
डील	-11.6647
पोर्टो	-11.665
ध्वज	-11.6652
STA	-11.6652
▁लपेटा	-11.6652
▁संदेशो	-11.6652
string	-11.6654
▁K	-11.6656
▁कोशिका	-11.6657
रूपता	-11.6658
बन्ध	-11.6662
ंदन	-11.6663
▁तुर	-11.6665
▁फ्लैग्स	-11.6665
रेंसिंग	-11.6666
▁सृजक	-11.6666
fic	-11.6669
▁उपयोगकर्ताः	-11.6675
▁जीते	-11.6676
dom	-11.6678
una	-11.668
▁AND	-11.6684
▁IMA	-11.6684
ump	-11.6685
डिटेक्	-11.6685
udi	-11.6686
enabled	-11.669
▁पैक	-11.6694
र्जे	-11.6695
▁संवेदनशीलता	-11.6697
visi	-11.6705
▁अलब	-11.671
शों	-11.6714
▁विश्वसनीय	-11.6719
▁बि	-11.672
▁ग्रेना	-11.672
▁सैले	-11.6721
▁डोमिनिक	-11.6726
▁सुधार	-11.6726
त्ता	-11.6728
▁अगस्त	-11.673
ebrew	-11.6732
pop	-11.6733
रॉस	-11.6735
कोरियन	-11.6736
ddress	-11.6738
▁index	-11.6739
▁भुलैया	-11.674
▁सौ	-11.674
Ma	-11.6741
▁जार्जिया	-11.6741
▁सिंगापुर	-11.6741
्लोट	-11.6742
ments	-11.6745
▁Tim	-11.6752
ढ़े	-11.6757
▁नाइज	-11.6759
ph	-11.6759
ैगो	-11.676
केंड	-11.676
▁एंटी	-11.6761
विंसेट	-11.6766
▁सकोर	-11.677
ाइडर	-11.677
▁जरुरी	-11.6771
ट्रीम	-11.6781
▁छप	-11.6782
डिक	-11.6787
सात	-11.6795
रलैंड	-11.6798
mar	-11.6799
uti	-11.6801
उंड	-11.6803
▁चुनकर	-11.6803
▁Ver	-11.6811
▁चोट	-11.6816
▁फॉर्	-11.682
सूच	-11.6821
▁हल्का	-11.6828
▁स्तरः	-11.6831
ाचार	-11.6834
▁सीए	-11.6837
indi	-11.684
्टिक	-11.6842
ज़ा	-11.6851
मुद्र	-11.6851
आर्क	-11.6863
▁फिली	-11.6863
राउंड	-11.6865
जेन	-11.6867
सूत्र	-11.6868
ांतर	-11.6868
▁अंतः	-11.687
िक्स	-11.6875
ील्ड	-11.6878
अद	-11.688
▁ज्या	-11.6882
▁ब्र	-11.6886
▁छांटा	-11.6889
क्सम	-11.689
▁Tu	-11.689
धिकृत	-11.6907
apps	-11.6908
टेलिफोनी	-11.6925
जित	-11.693
ुकी	-11.693
▁eine	-11.6934
▁अरब	-11.6935
Mov	-11.6937
▁स्वीड	-11.694
gc	-11.6946
रु	-11.6947
ial	-11.6952
SMS	-11.6952
▁combine	-11.6953
रीट्र	-11.6954
▁छापन	-11.6962
▁कैले	-11.6963
activat	-11.6967
tk	-11.697
▁कॉन्फ	-11.6974
होल्ड	-11.6992
▁व्यस्तता	-11.6992
नाड	-11.7006
▁vo	-11.702
▁गोल	-11.7022
▁log	-11.7022
GPS	-11.7022
▁[%	-11.7029
▁चक्कर	-11.7031
▁विव	-11.7032
िले	-11.7045
िगम	-11.7046
ccount	-11.7054
न्यू	-11.7055
ॉट	-11.706
▁स्वा	-11.7062
▁गुए	-11.7077
▁संयोज	-11.7078
ेनिया	-11.7078
▁निष्क	-11.7084
▁प्रोग्रामिंग	-11.7085
▁करन	-11.7091
▁दब	-11.7091
मध्य	-11.71
▁nm	-11.7102
▁स्थित	-11.7108
nternet	-11.7109
▁reg	-11.713
वोल्यूशन	-11.7137
▁घटा	-11.715
्वेष	-11.7152
ैम	-11.7155
rg	-11.716
कच	-11.7163
ोड़ा	-11.7167
▁दश	-11.7167
▁dir	-11.717
▁बैकें	-11.7172
▁cm	-11.7186
ेरोप	-11.719
▁en	-11.7194
▁टूटा	-11.7197
लोग	-11.7206
▁विस्थापन	-11.7209
टीप	-11.7234
▁कोरिया	-11.7244
cb	-11.7244
▁वैधता	-11.7245
ीआई	-11.7253
ण्डी	-11.7267
▁bes	-11.7278
inu	-11.7281
select	-11.7288
ith	-11.7293
ुँ	-11.7316
multi	-11.732
mu	-11.7327
चाल	-11.7347
▁कैर	-11.7369
▁भारी	-11.7369
COM	-11.737
Th	-11.7385
▁स्मू	-11.7395
वत	-11.7402
माइनर	-11.7402
कारी	-11.7407
ica	-11.7408
पोली	-11.7412
्विक	-11.7418
▁रोका	-11.743
खि	-11.743
nset	-11.7433
▁नामक	-11.7433
डे	-11.7435
ंग्व	-11.7464
▁ORB	-11.7465
र्व	-11.7472
tc	-11.7485
dir	-11.7486
ार्ट	-11.7488
MD	-11.7529
सिंक	-11.7537
ीटर	-11.7559
pdat	-11.756
▁निमंत्र	-11.7568
टों	-11.758
ची	-11.7581
rol	-11.7583
सल	-11.7592
किट्स	-11.7592
▁inc	-11.7598
वन	-11.7621
आरज	-11.7626
िरी	-11.7629
मेंट	-11.7642
▁server	-11.765
चा	-11.7661
लक्ष्य	-11.7677
▁II	-11.768
विन्य	-11.7685
PE	-11.769
पित	-11.7706
para	-11.7717
▁संतु	-11.7729
रीन	-11.7738
मॉन	-11.7751
रोस	-11.7789
ंकेत	-11.7792
टोर	-11.7802
omanian	-11.7831
हे	-11.7892
▁सच	-11.7912
▁ट्रांसप	-11.7923
▁कन	-11.7958
ाइलें	-11.7966
कोकोस	-11.7985
▁हाँ	-11.7985
▁पोल	-11.7989
होव	-11.7991
ाट	-11.8024
ैप्स	-11.8027
इंटर	-11.8036
limi	-11.8038
US	-11.8065
▁खिसकाए	-11.807
दर्शित	-11.8072
▁कृ	-11.8098
▁मार	-11.8098
ब्र	-11.8118
)%	-11.8132
ans	-11.8137
मोंटेन	-11.814
विधि	-11.8154
जापानीस	-11.8157
उल	-11.816
ाक	-11.816
▁किलो	-11.8166
="	-11.8203
▁निर्देश	-11.8228
यूट	-11.8229
west	-11.824
▁Appl	-11.824
la	-11.8243
▁list	-11.8243
ोक	-11.8256
ास	-11.8257
दल	-11.827
nch	-11.829
▁बेल	-11.8297
त्तर	-11.8337
▁Min	-11.8353
प्रिंस	-11.8355
ात	-11.8369
मैड	-11.8373
▁छोड़े	-11.8376
मु	-11.841
eb	-11.8451
▁संजालित	-11.8477
मिक	-11.8491
ue	-11.8508
रोह	-11.8513
▁जील	-11.8513
ara	-11.8525
सरे	-11.8554
▁programs	-11.8567
▁खुल	-11.8572
सत	-11.8581
गू	-11.8597
मेयन	-11.8615
लाक	-11.8615
ाएं	-11.8616
ust	-11.8618
ूं	-11.8622
oe	-11.8626
मेरि	-11.8659
ंकी	-11.8667
RP	-11.8667
▁अंग	-11.8702
▁गुणक	-11.8721
▁एस	-11.8726
ul	-11.876
ेंटे	-11.8776
rop	-11.8791
Car	-11.8815
्तान	-11.8832
गन	-11.8837
कोस्टा	-11.8838
▁शुद्ध	-11.8874
▁settings	-11.8894
hy	-11.8898
ूबा	-11.8908
सिर	-11.8922
ेंगे	-11.8922
▁प्रव	-11.8925
ूल	-11.8933
ैं	-11.8944
▁निरस	-11.8961
ah	-11.8978
▁छोड़ा	-11.8982
ार्ट्स	-11.8989
ग्रे	-11.8992
tered	-11.9069
ग्रै	-11.9087
▁पंक्तिय	-11.9095
केट	-11.9118
ie	-11.9129
▁कंब	-11.9131
▁कनेक्टे	-11.9136
MB	-11.9161
▁सेव	-11.9172
FA	-11.9178
”.	-11.9179
ानिया	-11.919
ep	-11.9192
ाप	-11.9194
टे	-11.9198
जि	-11.9203
जिक	-11.9217
ट्रे	-11.9244
oh	-11.9273
ेसि	-11.9274
ाउन	-11.9287
्गी	-11.9293
आपक	-11.9304
जमाएँ	-11.9319
▁लपेट	-11.9323
▁छविय	-11.9332
▁द्	-11.9335
एक्ट	-11.9353
▁धा	-11.9361
ंध	-11.9369
ोटा	-11.9382
ाइड	-11.9382
न्तरि	-11.9401
मक	-11.9434
पोलो	-11.9447
▁स्मा	-11.9462
ज्ञा	-11.9486
▁List	-11.95
▁सो	-11.9503
▁संभाल	-11.9545
ियम	-11.9546
ity	-11.9547
पलेट	-11.9549
करें	-11.9554
ेल	-11.9572
ारो	-11.958
▁स्थाप	-11.9652
played	-11.967
गोर	-11.9687
▁बांटत	-11.972
ावर्त	-11.9721
सै	-11.9726
▁इंप	-11.9739
ode	-11.9758
▁खुलत	-11.9793
▁जोड	-11.98
TR	-11.9825
ाशि	-11.9848
हर	-11.9892
फाक	-11.9899
Te	-11.9902
त्	-11.9973
स्तर	-12.0006
किस	-12.0008
row	-12.001
rz	-12.002
इस्त	-12.0027
▁पड़ेग	-12.0034
▁Sta	-12.0038
info	-12.0052
चे	-12.0081
gt	-12.0096
ंडो	-12.0128
िलायें	-12.0156
ैंड	-12.0182
▁रहेग	-12.0198
ुक	-12.0216
षा	-12.0226
आरडब	-12.023
▁ये	-12.0256
नमार्क	-12.0271
▁पांचवा	-12.0276
मोर	-12.0291
बात	-12.0301
▁दीवा	-12.0302
सित	-12.0309
▁सोर्सेज	-12.0314
▁नो	-12.0357
TS	-12.0375
▁Conf	-12.0384
▁गा	-12.0394
▁अल्	-12.042
▁k	-12.0433
urs	-12.046
nc	-12.0482
रवास	-12.049
ीका	-12.0546
ागा	-12.0563
बि	-12.0566
यना	-12.0579
डीए	-12.0599
▁ट्रैल	-12.0601
हैं	-12.0665
मार्क्	-12.0668
रीस	-12.0672
रेजी	-12.0678
रिवर्	-12.0681
▁स्ल	-12.0695
ब्	-12.0759
des	-12.0767
बर	-12.0775
▁क्ल	-12.079
पीड	-12.079
▁फ्लि	-12.0791
लू	-12.0796
tes	-12.0805
▁प्रारूपक	-12.0835
ame	-12.0849
▁पाइ	-12.086
▁वॉल	-12.0863
▁होंग	-12.087
्द	-12.088
▁PI	-12.0897
नोट	-12.0904
सेक	-12.0912
एस्के	-12.0913
ुनें	-12.0934
वेश	-12.0952
्शन	-12.0957
उन	-12.1004
run	-12.1004
▁टेंप	-12.1017
जांबि	-12.1052
ng	-12.1054
रेस	-12.106
द्	-12.1072
ग्र	-12.1077
ven	-12.1087
्रे	-12.1104
▁क्लि	-12.1104
सो	-12.1109
गोरिथम	-12.1114
ract	-12.1137
कें	-12.1203
मिन	-12.123
li	-12.1238
़ल	-12.1262
िका	-12.1284
▁आउटलाइ	-12.1285
न्तर	-12.129
हल	-12.1296
ैलें	-12.1345
▁App	-12.1347
▁लं	-12.1355
ंच	-12.1387
▁ठ	-12.139
▁लपेटन	-12.1398
ger	-12.1419
eu	-12.1451
कोलंब	-12.146
ांत्रिक	-12.1483
ताक्षर	-12.1486
रना	-12.1501
रने	-12.1505
its	-12.1519
बरा	-12.1525
तनी	-12.1562
▁समेट	-12.157
▁नज	-12.1578
ांतरित	-12.1587
ियाई	-12.1598
धा	-12.1667
गैब	-12.168
ci	-12.1684
ply	-12.1686
ग्न	-12.1699
nning	-12.174
▁रिवर	-12.175
tain	-12.1754
pen	-12.1762
रॉट	-12.177
ुरूप	-12.1789
nic	-12.1822
:"	-12.1854
इल	-12.1857
gree	-12.1868
▁जाव	-12.188
िना	-12.1929
तमिल	-12.1944
िनी	-12.1952
चय	-12.1953
▁हरा	-12.1958
▁घुमान	-12.1982
▁यूआई	-12.1991
ro	-12.2004
नेट	-12.204
ea	-12.2051
मस्क	-12.2078
ou	-12.2086
ेन	-12.2118
nly	-12.2122
एंटि	-12.213
ung	-12.2152
▁रिंगि	-12.2161
adcd	-12.2181
▁अट	-12.2248
▁गान	-12.2255
▁टो	-12.2286
टोब	-12.2289
गाल	-12.2293
्रा	-12.2295
हाल	-12.2302
inter	-12.2309
सर्वर	-12.2326
ांचा	-12.2364
ered	-12.2386
याकुत	-12.2391
▁कोण	-12.2408
ीवी	-12.2418
▁संरेख	-12.2427
▁OR	-12.2429
▁Li	-12.2435
धृत	-12.2439
किया	-12.2456
्सी	-12.2508
▁लेंग	-12.2544
ीट	-12.2577
uc	-12.2598
▁प्	-12.2598
और	-12.2601
ugzilla	-12.2609
▁पारस	-12.264
रेखण	-12.264
▁रॉल	-12.2674
▁No	-12.2692
arent	-12.2697
▁ड्रा	-12.2717
▁मैक	-12.2718
ारित	-12.2725
वत्	-12.276
OL	-12.2785
ालिक	-12.2801
थि	-12.2875
Tru	-12.2906
▁दिखात	-12.2909
ंघ	-12.2917
▁मेज	-12.2944
एकबार	-12.2965
ाएगा	-12.2972
mb	-12.3001
गया	-12.3006
▁आपस	-12.3019
▁कहत	-12.3033
▁मई	-12.3035
?)	-12.3076
ट्रि	-12.3097
क्वे	-12.3167
षण	-12.3205
ग्ले	-12.3205
▁ध्वनिया	-12.3216
ub	-12.3219
Sal	-12.3258
▁इंटर	-12.3284
▁मोन	-12.3285
चें	-12.3334
▁लाट	-12.3344
ूथ	-12.3353
लेन	-12.3433
जन	-12.3435
ेज	-12.3455
▁उत्त	-12.3465
▁गैप	-12.347
ूर्ण	-12.3471
रेख	-12.3473
▁संप्रेष	-12.3525
mit	-12.3565
कुत्स	-12.3576
श्	-12.3588
▁me	-12.3615
Pu	-12.3615
ंगल	-12.3627
▁लग	-12.3657
सीम	-12.3673
रवा	-12.368
मित	-12.3682
▁ट्रांस	-12.3683
मौजूद	-12.3688
िंबा	-12.3689
ंव	-12.3777
टक	-12.3793
फा	-12.3816
ring	-12.3839
cl	-12.3856
स्टा	-12.3857
यूनि	-12.3862
▁Act	-12.3877
..	-12.3898
▁सूर्	-12.3902
राट	-12.3911
▁co	-12.3911
दृश्य	-12.3938
डर	-12.3957
ानेवाल	-12.3968
वास	-12.3974
Fre	-12.3995
ार्टी	-12.3997
क्रोना	-12.3999
मेन	-12.4015
ज्	-12.4027
▁Acce	-12.4038
ME	-12.4043
ंबो	-12.4046
oir	-12.4049
▁ख़	-12.4103
क्ट	-12.4116
ork	-12.4119
उत्तरी	-12.4147
तत	-12.416
ांटें	-12.4161
ुआन	-12.4171
योग	-12.419
▁उद्धर	-12.4206
▁सिफ	-12.4223
सिं	-12.4227
▁तिग	-12.4233
मत	-12.4263
नक	-12.4275
▁दबाये	-12.4305
▁वेले	-12.4319
क्रमण	-12.4321
रिवर	-12.4335
▁Non	-12.4339
ब्रिस	-12.4352
▁साइ	-12.4359
जोड़ें	-12.4376
ेशान	-12.4379
low	-12.438
▁रेज	-12.439
▁बाये	-12.443
▁फै	-12.4449
ure	-12.4474
शः	-12.4475
किल	-12.449
ारण	-12.4497
▁Lo	-12.4504
▁टाइ	-12.4505
▁हे	-12.4523
सम्पाद	-12.4548
प्रवाह	-12.4604
ru	-12.4628
log	-12.4646
rar	-12.4647
बह	-12.4672
धीर	-12.4675
बोल	-12.4676
▁टॉ	-12.4678
ाका	-12.4703
hu	-12.471
अभिलेख	-12.4753
वतः	-12.4762
KS	-12.4767
ीब	-12.4777
आरंभ	-12.4781
लुस	-12.4786
खेल	-12.4804
ंटेन	-12.4817
ultipl	-12.483
▁क्रो	-12.4835
प्रारूप	-12.4886
डब्ल	-12.489
किरी	-12.4909
▁आईकैल	-12.4913
कोड	-12.4913
रैंड	-12.4975
लाएँ	-12.4993
माल	-12.5011
▁मुफ	-12.5019
विक	-12.5039
▁इक	-12.5055
गणित	-12.5063
ल्म	-12.5067
ेगी	-12.5071
झ	-12.5076
कों	-12.5088
थो	-12.5096
्योर	-12.5114
संस्करण	-12.5128
ध्य	-12.5129
सिबि	-12.5159
पोन	-12.5169
hin	-12.5174
▁सर	-12.5178
चयन	-12.5188
अनुमति	-12.5211
नीय	-12.5237
विवरण	-12.5267
ैनु	-12.5274
्रेक	-12.5295
हेल	-12.5305
▁गिर	-12.5308
स्रोत	-12.5318
▁अपलो	-12.5322
हरी	-12.534
ise	-12.5341
ोर्स	-12.5352
“%	-12.5359
▁असं	-12.5361
recur	-12.5387
अधिक	-12.5389
फो	-12.5399
तिथि	-12.5404
बाइस	-12.5428
हाला	-12.5431
ंटिया	-12.5439
घटना	-12.5452
ंग्र	-12.5474
अंतिम	-12.5501
▁मार्	-12.5503
आंकड़ा	-12.5504
क्रम	-12.5506
कोस	-12.5516
रैम	-12.5534
ुज	-12.5543
▁बूलि	-12.5574
दस्तावेज़	-12.559
-%	-12.559
जरूरत	-12.559
श्चात	-12.5594
लीस	-12.5603
पाएँ	-12.5608
ाइल्ड	-12.561
ीव	-12.5614
▁combin	-12.5614
प्रॉक्सी	-12.562
दी	-12.5627
voi	-12.5632
twork	-12.5635
टेक्	-12.5659
विश्लेषण	-12.5661
▁मोज	-12.5672
मनपसंद	-12.5674
fin	-12.5675
▁टेलिफोन	-12.5678
लिस	-12.5693
ुरा	-12.5694
he	-12.5698
एंपेथी	-12.5706
स्कीमा	-12.5751
फ्री	-12.5754
बर्न	-12.5759
LDAP	-12.5762
पटल	-12.5763
IMAP	-12.5763
▁जह	-12.5764
तत्व	-12.5776
टोक	-12.5784
्मोसि	-12.579
▁विज	-12.5798
बै	-12.5803
दर्शक	-12.5806
साफ	-12.5809
▁स्न	-12.5815
पथ	-12.5817
मान्	-12.5824
विस्थापन	-12.5825
रद्दी	-12.5828
चुन	-12.5832
डेन	-12.5832
Gru	-12.5836
दन	-12.5847
जारी	-12.5848
बहु	-12.5854
लॉगिन	-12.5857
तनाम	-12.5871
छोटा	-12.5888
ग्रा	-12.5889
बीए	-12.5892
अग्रेषित	-12.5898
शीर्ष	-12.5905
अवधि	-12.5906
▁जे	-12.5914
माउस	-12.592
रोकें	-12.5921
मला	-12.5928
्डर	-12.5931
समाप्ति	-12.5935
यूआई	-12.5939
पल	-12.5941
साइरिलिक	-12.5943
माह	-12.5947
ट्रै	-12.5949
लेबल	-12.5963
बिंब	-12.5972
डिरेक्ट्री	-12.5974
cdr	-12.5986
कॉन्फ़िगरेशन	-12.5989
महत्वपूर्ण	-12.5993
वर्ग	-12.6005
वात	-12.6007
ब्ला	-12.6007
संपन्न	-12.602
पायें	-12.6025
सहभागी	-12.603
जन्मदिन	-12.6034
bug	-12.6036
अभिव्यक्त	-12.6036
▁उक्रेन	-12.6039
ोवा	-12.6042
एन्क	-12.6046
बनान	-12.6046
िग	-12.6047
दक्षिण	-12.605
यूआरएल	-12.605
कंपोजर	-12.6051
गति	-12.6054
हांग	-12.6057
दोनों	-12.6057
विंडोज़	-12.6066
▁Sa	-12.6068
नुआ	-12.6069
हटायें	-12.6072
Acce	-12.6076
समयक्षेत्र	-12.6078
धीम	-12.6079
द्रित	-12.6081
दिनांक	-12.6082
message	-12.6083
प्रत्येक	-12.6085
बाल्टिक	-12.6086
▁ब्लॉ	-12.6088
दस्ती	-12.6096
टर्मिनल	-12.6096
स्थगित	-12.61
गोपित	-12.6101
Evolution	-12.6101
थ्रेड	-12.6104
प्रस्ताव	-12.6106
सिंगापुर	-12.6107
जार्जिया	-12.6108
निवे	-12.6109
पैड	-12.611
भुलैया	-12.611
index	-12.6113
ग्नो	-12.6115
ंडरबर	-12.6115
िकल	-12.6116
व्याख्या	-12.612
अनिवार्य	-12.6121
बायां	-12.6121
आज	-12.6123
वाद	-12.6123
पुनरावर्त	-12.6125
minute	-12.6125
ोजन	-12.6127
सुधार	-12.6128
rep	-12.6129
छोटे	-12.6131
मैं	-12.6132
फिक्स	-12.6132
test	-12.6134
प्लेयर	-12.6138
मिटाए	-12.6139
नियंत्र	-12.614
अन	-12.614
थंडर	-12.614
आरोह	-12.614
फैक्स	-12.6141
पारम्परिक	-12.6141
गहरा	-12.6142
ठहरें	-12.6142
मानचित्र	-12.6142
धीमा	-12.6143
trans	-12.6144
filter	-12.6147
kbit	-12.6148
▁ओक	-12.6149
plugin	-12.6151
र्टो	-12.6155
श्री	-12.6159
विश्वसनीय	-12.6161
ट्रैक	-12.6163
मूल	-12.6164
फील्ड	-12.6165
रंजन	-12.6167
ओपन	-12.6169
बड़े	-12.6169
`	-12.6171
जिप	-12.6171
स्पेस	-12.6173
डोमिनिक	-12.6174
मोंट	-12.6175
मैच	-12.6175
मानक	-12.6176
सकोर	-12.6178
बुक	-12.6179
पाइथन	-12.6179
ol	-12.6179
शेल	-12.6185
पारदर्शिता	-12.6186
्यो	-12.6187
होन	-12.6192
▁कैन	-12.6194
आफ	-12.6196
uj	-12.6197
समुच्चय	-12.6199
ग्रीक	-12.6213
ules	-12.6216
सम्म	-12.6221
दो	-12.6224
ग्रेना	-12.6229
▁enable	-12.6233
आप	-12.6235
पत्	-12.6242
til	-12.6245
▁यूआ	-12.6251
/-	-12.6256
फुट	-12.6258
र्ण	-12.6258
ift	-12.6259
▁विचर	-12.626
एंटी	-12.6262
पनाम	-12.6263
बेन	-12.6264
status	-12.6271
गणक	-12.6272
ोबा	-12.6275
Sub	-12.6276
NA	-12.6276
जनक	-12.63
मुक्त	-12.63
टूल	-12.631
गुणक	-12.6315
्र	-12.6316
▁घंट	-12.6321
टोन	-12.6325
वाड	-12.6326
निकट	-12.6331
फॉ	-12.6334
व्यू	-12.6344
निर्देश	-12.6349
पोर	-12.6351
ime	-12.6351
च्छ	-12.6361
ष्ठ	-12.6363
lib	-12.6365
स्वागतम	-12.6373
▁आपात	-12.6374
काल	-12.6377
elect	-12.6379
▁division	-12.6382
बारब	-12.6388
▁प्रकाश	-12.6401
ंसिंग	-12.6406
ैनो	-12.6408
मेरी	-12.6412
▁बोस्	-12.6415
▁Window	-12.6415
स्केल	-12.6419
▁कुंज	-12.6421
▁एशिय	-12.6422
काटे	-12.6424
olve	-12.6427
पट्	-12.6435
शिका	-12.6436
कटू	-12.644
▁Ch	-12.6442
ूम	-12.6444
▁अफ्रीक	-12.6444
▁फ़ॉ	-12.6445
alendar	-12.6452
▁संग्र	-12.6458
▁सत्याप	-12.6459
डोनेशिया	-12.6463
निस्प	-12.6464
द्धि	-12.6465
र्ज	-12.6471
चोट	-12.6473
▁पीछ	-12.6476
ौभ	-12.6476
ट्ठ	-12.648
▁चेहर	-12.6481
ign	-12.6489
मुच	-12.6491
▁संप	-12.6492
▁उल्ट	-12.6493
statu	-12.6494
कंपा	-12.6494
रेक्टर	-12.6495
uthentication	-12.6497
▁निचल	-12.6498
ायज	-12.65
एक्स	-12.6506
हस्त	-12.6506
▁बैठ	-12.651
▁लाइ	-12.6512
▁लाइबेर	-12.6512
्रमण	-12.6512
▁............	-12.6513
▁अक्ष	-12.6514
▁चेतावन	-12.6514
▁डाकपेट	-12.6519
रोसा	-12.6519
▁रेखांक	-12.652
▁रोमानिया	-12.6522
▁इंस्पेक्ट	-12.6525
▁कंपोज	-12.6526
receiv	-12.6527
लिवर	-12.6528
impli	-12.6529
coll	-12.653
मर्थित	-12.6531
ounter	-12.6533
irect	-12.6535
डोमिन	-12.6536
▁ढ	-12.6536
हमल	-12.6537
कोमोर	-12.6537
ubject	-12.6539
प्रोक	-12.6539
▁कैल	-12.654
▁play	-12.654
esktop	-12.6542
ontact	-12.6544
्रेष	-12.6545
igh	-12.6546
दृश	-12.6546
मैन	-12.6547
धिष्ठाप	-12.6549
ऐ	-12.655
tical	-12.655
बंधन	-12.6551
▁विष	-12.6551
स्ट्रेलिया	-12.6551
्रैस	-12.6552
ीडबैक	-12.6553
दर्भ	-12.6554
माणपत्र	-12.6554
अस्	-12.6554
▁आइसलैंड	-12.6554
ideo	-12.6554
▁बाइंड	-12.6555
▁एनकोड	-12.6556
▁fil	-12.6557
rasero	-12.6557
भूत	-12.6558
▁आजमाए	-12.6558
कॉर्ड	-12.6558
back	-12.6558
लिमिटर	-12.6558
▁यूरो	-12.6558
ermission	-12.6558
▁चमक	-12.6558
itional	-12.6558
▁दृष्	-12.6558
नुमान	-12.6559
▁विज्ञ	-12.6559
ीएलएस	-12.6559
▁एस्लेरिय	-12.6559
्रिप्शन	-12.6559
▁फैक्टोर	-12.6559
▁एंटीएलिया	-12.6559
नाइज़	-12.6559
▁चिपक	-12.6559
▁फ़ॉर्म	-12.6559
eader	-12.6559
abel	-12.6559
साइसर	-12.6559
ुष	-12.6559
etti	-12.6559
▁डेस्कट	-12.6559
solut	-12.6559
ूंढ़	-12.6559
▁योगदान	-12.6559
pplications	-12.6559
▁क्लॉ	-12.656
▁ज़ेन	-12.656
▁चौब	-12.656
्रिड	-12.656
▁शुभ	-12.656
डोकु	-12.6561
nome	-12.6561
ॉकेट	-12.6561
oundation	-12.6562
िलम्ब	-12.6562
ब्जेक्ट	-12.6562
riva	-12.6562
▁चीन	-12.6563
▁थंब	-12.6563
िष्	-12.6564
▁महज	-12.6564
point	-12.6564
▁सुडोक	-12.6564
stat	-12.6565
▁सिंक्र	-12.6565
▁अभिगम्य	-12.6565
Stat	-12.6566
mov	-12.6566
▁रिपो	-12.6567
ects	-12.6567
इलैंड	-12.6567
ॉयल	-12.6568
शिष्ट	-12.6568
▁........	-12.6568
ब्रू	-12.6569
▁परिभ	-12.6569
utton	-12.6569
ight	-12.6569
code	-12.6569
िंट्स	-12.657
ग्रेड	-12.657
ब्ल्	-12.657
िंडो	-12.657
्मेर	-12.6571
अम	-12.6571
▁दुर्	-12.6572
यूनतम	-12.6572
विंड	-12.6572
estore	-12.6573
zoo	-12.6574
▁आस्ट्र	-12.6577
िशु	-12.6578
exten	-12.6579
▁लाभ	-12.6579
्जिय	-12.658
ोत्स	-12.658
रिंट	-12.6581
फाउंड	-12.6583
emo	-12.6585
XX	-12.6586
इयो	-12.6587
hoose	-12.6588
▁Found	-12.6588
सेल्स	-12.6589
्रोन	-12.6589
टिमा	-12.6589
शान्	-12.659
डायर	-12.6593
▁न्यूनत	-12.6594
il	-12.6594
▁प्रस्थ	-12.6595
eek	-12.6595
ज्ञात	-12.6596
▁सार्व	-12.6596
her	-12.6597
▁शीर्षिक	-12.6597
रेखा	-12.6598
▁rest	-12.66
VCD	-12.6601
स्मारक	-12.6602
मिन्	-12.6604
................	-12.6606
उटलुक	-12.6606
बाए	-12.6608
र्तमान	-12.6608
radi	-12.6608
lle	-12.6609
▁Pro	-12.6611
new	-12.6612
▁डिफ	-12.6613
सैल	-12.6614
ुमति	-12.6615
▁छुपाए	-12.6615
हार्	-12.662
्वीक	-12.6621
▁Tra	-12.6621
ence	-12.6622
two	-12.6624
conf	-12.6624
▁libb	-12.6625
लिस्	-12.6625
▁एंब	-12.6626
▁क्लिप	-12.6626
ट्ठा	-12.6628
कुचि	-12.6629
▁दौरा	-12.663
त्म	-12.663
▁जर्न	-12.6634
बीसी	-12.6636
▁शु	-12.6636
लेंडर	-12.6636
ubt	-12.6638
फू	-12.6639
डेट	-12.664
हरान	-12.6641
फसेट	-12.6642
▁खीच	-12.6645
िफ्ट	-12.6648
विच	-12.6649
▁भ्र	-12.6649
▁फ्लो	-12.6651
टिप	-12.6651
ाँच	-12.6653
jar	-12.6653
पू	-12.6654
Esc	-12.6656
▁स्वीक	-12.666
ूद	-12.6661
प्रस	-12.6662
सम्ब	-12.6663
्गो	-12.6664
टेक	-12.6664
▁लंबव	-12.6669
श्चिक	-12.6673
cab	-12.6675
▁करेगे	-12.6676
Lin	-12.6678
aus	-12.6678
बादी	-12.6681
va	-12.6685
▁कॉम्	-12.6685
Calendar	-12.6685
▁Can	-12.6686
्राय	-12.6689
धारक	-12.6693
▁फेंट	-12.6694
न्ग	-12.6695
टेग	-12.6695
ष	-12.67
▁कोटिया	-12.67
size	-12.6701
जियन	-12.6705
▁पठ	-12.6708
▁उदाह	-12.6709
▁निज	-12.6709
▁वेस्ट	-12.6712
डवे	-12.6713
▁ग्न	-12.6717
ivate	-12.6717
ral	-12.6721
volu	-12.6722
यो	-12.6722
बैं	-12.6723
▁एनक	-12.6724
तरू	-12.6733
च्छे	-12.6734
कोडिंग	-12.6735
▁Ti	-12.6736
▁लान	-12.6736
ancel	-12.6737
्की	-12.6737
ाइन्स	-12.674
▁शट	-12.6744
रूस	-12.6745
मर्	-12.6747
हेड	-12.6749
ंभ	-12.6751
▁बाज	-12.6752
▁मल्टीप	-12.6754
https	-12.6755
▁इंस	-12.6756
जील	-12.6763
medi	-12.6767
▁मिलीसे	-12.6768
▁उद	-12.677
gz	-12.677
डकार	-12.6772
▁पीए	-12.6773
sync	-12.6775
con	-12.6775
▁अग्र	-12.6775
▁रोल	-12.6776
त्रिक	-12.6777
pan	-12.6782
▁Per	-12.6783
ठित	-12.6789
क्सिक	-12.679
ोनाइ	-12.6791
▁हिस	-12.6792
क्रेनियन	-12.6794
▁साउ	-12.6795
रानी	-12.6797
दू	-12.6797
▁आध	-12.6802
रुट	-12.6805
▁Sea	-12.6815
्पा	-12.6817
tic	-12.6818
xt	-12.6824
ओस	-12.6826
र्जन	-12.683
पैट	-12.6831
▁एक्सेर	-12.6834
ारंभ	-12.6835
rie	-12.6841
निश	-12.6843
गइ	-12.6844
भागी	-12.6844
▁OA	-12.6845
इका	-12.6849
▁डिस्प	-12.6851
▁घन	-12.6852
exp	-12.6858
▁कम्प	-12.6859
वर्क	-12.6863
चालित	-12.6866
कौ	-12.6873
प्यू	-12.6875
▁NO	-12.6875
▁व्यवस्था	-12.6878
योक्	-12.688
जियाई	-12.6881
सीए	-12.6883
▁लाइसे	-12.6888
▁बेला	-12.6892
ीर	-12.6894
बिन	-12.6895
हरण	-12.6898
▁चलाए	-12.6899
▁vers	-12.6901
ape	-12.6902
माला	-12.6904
एपी	-12.692
▁सूचन	-12.6927
▁खिसकान	-12.6928
वश्यक	-12.6936
▁परीक्ष	-12.6937
▁वाप	-12.6951
pst	-12.6953
ह्	-12.6953
ुहरा	-12.6957
्कनेक्टेड	-12.6958
टिल	-12.6978
लीज	-12.6981
▁एच	-12.6987
लेटर	-12.699
स्पर	-12.6994
▁जाँ	-12.6995
स्को	-12.6996
जुल	-12.6997
नुरूप	-12.7005
cale	-12.7011
िर्द	-12.7017
▁Ro	-12.7019
sys	-12.7024
bar	-12.7025
▁सक्र	-12.7035
▁अनुमा	-12.7038
म्म	-12.7041
र्धा	-12.7042
ुत	-12.7047
TTP	-12.7048
महीना	-12.7049
kb	-12.7051
▁जू	-12.7056
योगी	-12.7058
तिज	-12.706
माउ	-12.706
▁प्रस्त	-12.7064
र्गी	-12.7065
▁एन्क	-12.7071
▁युक	-12.7075
▁फ्लै	-12.7086
रिलिक	-12.7086
स्ला	-12.7086
रक्षित	-12.7094
्यक्त	-12.7094
▁ग्नो	-12.7094
▁अभिव्यक्त	-12.7097
▁पुस्ति	-12.7103
▁अवरो	-12.7112
ंतराल	-12.7113
▁जीत	-12.7129
याल	-12.7132
लों	-12.7137
ibi	-12.7145
ask	-12.7167
्रो	-12.718
▁स्वच	-12.7182
वेस	-12.7186
▁Goo	-12.7189
समर	-12.7194
ियल	-12.7197
्यून	-12.7198
समा	-12.7199
▁स्क्री	-12.7203
lue	-12.7206
▁LD	-12.7208
ेक्ट	-12.7209
कांग	-12.7211
oz	-12.7225
ze	-12.7225
एश	-12.7234
▁संभ	-12.7237
oom	-12.724
पेन	-12.7258
Ice	-12.726
चो	-12.7264
▁Sub	-12.7264
Str	-12.7266
lity	-12.7273
▁हांग	-12.7281
डम	-12.7286
ात्	-12.7288
प्रे	-12.729
ठा	-12.7297
▁छिपाए	-12.7318
झा	-12.7325
कता	-12.7331
ोर्ट	-12.7341
कालि	-12.7341
▁रूस	-12.737
she	-12.7378
्रॉ	-12.7386
▁conta	-12.7391
कॉल्स	-12.7393
रिका	-12.74
▁ऑस्	-12.7404
▁त्यागे	-12.7419
uk	-12.7419
hr	-12.7422
स्लो	-12.7431
▁ते	-12.7434
मोसि	-12.7434
जां	-12.7451
▁दौर	-12.7457
रीका	-12.7467
वर्ति	-12.7467
len	-12.7471
्रीम	-12.7472
▁कोटे	-12.7479
ड्यू	-12.7481
oad	-12.7489
▁appli	-12.7502
सार	-12.7506
होक	-12.7513
▁धी	-12.7526
टान	-12.7528
तम	-12.7529
ुआट	-12.754
रंगी	-12.7549
▁डाले	-12.7553
▁रिका	-12.7553
cy	-12.7554
▁अफ	-12.7564
etwork	-12.757
ंतर	-12.7572
▁हमे	-12.7575
्वी	-12.7587
टली	-12.759
▁खींचे	-12.7593
स्कर	-12.76
ुले	-12.7615
▁जोड़त	-12.7623
rf	-12.7626
तीन	-12.7626
ताश	-12.7627
ड़े	-12.763
चट	-12.7636
ण्डो	-12.7641
फिक	-12.7674
स्टन	-12.7678
▁फॉ	-12.7681
rw	-12.7685
rece	-12.7686
र्वे	-12.7687
लियास	-12.7699
▁se	-12.7701
गतिशील	-12.7705
ज्या	-12.7719
गु	-12.7724
▁o	-12.7729
▁पाये	-12.7735
िश्	-12.7739
ीगल	-12.7747
▁अस्व	-12.7748
आक	-12.7772
ds	-12.778
▁कुक	-12.7783
हण	-12.7789
ts	-12.7801
▁Go	-12.7812
▁......	-12.7813
che	-12.7838
pr	-12.7862
▁समुच	-12.7863
पान	-12.7866
थाई	-12.7888
ba	-12.789
स्ता	-12.7894
ht	-12.7895
fa	-12.7904
ादित	-12.7929
लबैक	-12.793
▁क्ला	-12.7932
▁निय	-12.7938
ull	-12.7945
▁निका	-12.7948
cho	-12.7949
Mo	-12.7954
ारक	-12.7977
▁शब्दको	-12.7981
बां	-12.7993
इर	-12.7996
tr	-12.7998
स्की	-12.8012
▁कह	-12.8015
▁बर	-12.8028
▁पाए	-12.8047
▁au	-12.8049
हिए	-12.8061
▁डाउन	-12.8062
ीकार्ड	-12.8097
og	-12.8101
▁START	-12.8104
सब	-12.8106
्दे	-12.8119
sday	-12.8132
िस्	-12.8138
तना	-12.8138
Of	-12.8146
ंचार	-12.8174
Fe	-12.8177
▁आये	-12.8179
▁!!	-12.8189
नीति	-12.8194
गान	-12.8198
▁बारब	-12.8204
▁पो	-12.8216
▁क्लाइ	-12.8219
क्सी	-12.8226
पुट	-12.8242
▁बेन	-12.8243
ig	-12.8262
्रॉक	-12.8262
▁जै	-12.8291
ामीटर	-12.8294
call	-12.8309
▁अनि	-12.8313
तरफ	-12.8348
ोप	-12.8365
▁Pi	-12.8379
ern	-12.8389
बिल	-12.8392
ोलें	-12.8405
टैल	-12.8422
▁Pre	-12.8435
ीसेल	-12.8438
▁लगत	-12.8451
pa	-12.8465
▁सप्	-12.8467
▁चलाये	-12.8495
▁डिस	-12.8502
सिक	-12.8512
dit	-12.8513
सेव	-12.8514
Al	-12.853
लित	-12.8548
▁ग्रा	-12.8559
कीप	-12.8571
▁लेव	-12.8579
ंटर	-12.8585
त्का	-12.8589
esta	-12.8609
ग्	-12.8611
त्ते	-12.8622
▁उच्चत	-12.8625
ोना	-12.8635
ज़ी	-12.8636
mes	-12.8638
लास	-12.8647
ाशित	-12.8651
णों	-12.8657
ाडे	-12.8669
ndar	-12.8673
▁फास	-12.87
▁ग्रे	-12.8705
ct	-12.8708
▁add	-12.8726
▁बहा	-12.8731
ामा	-12.8733
माप	-12.8737
▁चेता	-12.8743
रिस	-12.8755
रीट	-12.8758
बोर्	-12.8759
▁ga	-12.876
र्सी	-12.8773
▁आउटबा	-12.8775
Fi	-12.8784
▁Gn	-12.8795
ीपी	-12.8797
▁lo	-12.8804
▁नेप	-12.8808
LA	-12.8828
ोश	-12.8837
कीव	-12.8855
वम्	-12.8856
लिया	-12.8859
▁रीय	-12.8921
ैमरा	-12.8939
cn	-12.8963
sub	-12.8973
रेज	-12.8983
गैर	-12.9019
ble	-12.9024
अब	-12.9028
ीड	-12.906
▁टें	-12.9079
▁ब्रा	-12.908
▁बने	-12.9089
▁प्रमा	-12.9112
▁रोम	-12.9119
▁मिन	-12.9145
प्र	-12.9163
पना	-12.921
द्य	-12.9226
gR	-12.9246
▁cl	-12.925
▁क्रै	-12.9261
स्तां	-12.9281
ंदे	-12.9284
मल	-12.9288
जात	-12.9293
IME	-12.9297
मिया	-12.9314
▁बाल्	-12.932
ेल्स	-12.9339
चल	-12.9359
▁अग्	-12.9385
▁अतिप	-12.9392
टना	-12.9423
▁उक्रेनिय	-12.9431
संभव	-12.9431
▁आस	-12.9449
िस्ट	-12.9454
▁जाय	-12.9461
UE	-12.9477
▁Ca	-12.9482
UN	-12.949
mi	-12.95
▁उद्ध	-12.9508
याप	-12.9515
गाली	-12.9517
ुन	-12.9517
राने	-12.9534
send	-12.9548
लीफ	-12.9575
कार्	-12.9577
रेनी	-12.9582
Dat	-12.9589
▁दिखाये	-12.9603
▁शी	-12.9604
▁CR	-12.9609
निय	-12.9668
▁ver	-12.9684
प्रा	-12.972
▁fi	-12.9753
वै	-12.9772
यस	-12.981
्विचर	-12.9816
py	-12.9862
▁आटोडिटेक्ट	-12.9932
परिचित	-12.9933
▁बू	-12.995
टीम	-12.9973
▁सद	-12.9974
्नो	-12.9984
▁कू	-13.0008
▁UI	-13.001
ुल	-13.0028
तो	-13.0032
EM	-13.0045
ाय	-13.0049
नब	-13.0078
ोल्ड	-13.0118
ीक्षण	-13.013
▁loca	-13.02
ेंस	-13.0254
जर	-13.0265
़ार	-13.0285
ोजना	-13.0327
कित	-13.0374
र्नर	-13.0378
पाई	-13.0384
ag	-13.041
ईडी	-13.0435
क्षे	-13.0478
std	-13.049
ओर	-13.06
.)	-13.062
lay	-13.0654
लाँक	-13.067
ेंज	-13.0676
विस	-13.0696
▁mi	-13.0747
▁rece	-13.0774
▁per	-13.0833
र्कटिक	-13.0891
▁ब्ल	-13.0905
मस	-13.0932
rk	-13.0961
▁Use	-13.0963
ER	-13.099
ोर्टो	-13.0996
हली	-13.103
ंडर	-13.1035
DE	-13.1051
्तरः	-13.1054
ृत	-13.1061
▁मू	-13.1066
ass	-13.1099
▁कमर	-13.1119
िवार	-13.1137
ास्क	-13.114
स्कट	-13.1156
ult	-13.1213
▁आइ	-13.1214
▁GP	-13.1338
ous	-13.1384
FT	-13.1387
▁आम	-13.14
cha	-13.141
ेत	-13.1423
रणी	-13.1494
जाय	-13.1495
ॉल्स	-13.1499
▁ढूंढन	-13.1524
जाएगा	-13.1567
ni	-13.1575
शीलता	-13.1594
रान	-13.1601
लै	-13.163
ैना	-13.1633
▁भे	-13.1651
▁पहचाने	-13.1688
▁bo	-13.1692
▁कठ	-13.1693
रीय	-13.1696
ement	-13.1749
कार्ड्स	-13.1826
ोज़	-13.1841
ंक	-13.1859
▁im	-13.188
डिर	-13.1884
पूर	-13.1942
ोता	-13.1963
डिट	-13.2034
▁एक्सप	-13.2122
▁कार्ल	-13.2138
ुद	-13.214
निको	-13.2176
▁करत	-13.2241
ओप	-13.2284
▁स्पे	-13.2294
▁संदे	-13.2306
िपि	-13.2338
आध	-13.2356
▁निव	-13.2411
XM	-13.2455
▁Rec	-13.2456
ितीय	-13.2496
यूनिक	-13.2554
ोंग	-13.2556
▁अनुम	-13.2584
ॉल	-13.2594
▁मल	-13.2645
भर	-13.2654
ब्ल	-13.2684
हरा	-13.2692
ोली	-13.2697
खान	-13.2721
ारि	-13.2766
plie	-13.2784
ारं	-13.2892
ावल	-13.2951
tu	-13.3002
ृत्	-13.3002
sion	-13.3009
मुद्रि	-13.3038
▁us	-13.3061
▁we	-13.3104
eet	-13.317
omm	-13.3179
▁रहत	-13.3179
▁ex	-13.3182
▁निरीक्ष	-13.33
▁कीजि	-13.3312
und	-13.3315
▁रंगी	-13.3343
▁Wi	-13.3366
ीद	-13.3388
ापे	-13.3403
▁"/	-13.3456
टम	-13.3459
reg	-13.3486
स्वीकार्य	-13.3512
्रवा	-13.3528
▁pro	-13.3547
स्टे	-13.3554
रों	-13.3555
Appl	-13.3621
मनी	-13.3627
▁समूही	-13.364
सारा	-13.3645
was	-13.3647
TA	-13.3672
यनी	-13.3681
eck	-13.3735
ines	-13.3786
यूए	-13.379
ele	-13.3804
किं	-13.3822
lut	-13.3831
ोला	-13.3837
late	-13.3898
▁DO	-13.4079
ाह	-13.41
▁विश	-13.4157
रिव	-13.4244
ूरी	-13.4319
▁Es	-13.4342
वार्	-13.4348
spl	-13.4416
▁अम	-13.4427
ट्	-13.4446
Fl	-13.4545
ियोज	-13.4576
न्य	-13.4602
▁कुंजीप	-13.4602
▁पुर	-13.4626
यून	-13.4628
कोर	-13.4646
ंग्	-13.4647
▁एंट	-13.4695
▁win	-13.4707
▁er	-13.481
▁रिस्	-13.4816
वेदन	-13.4868
डेव	-13.4975
संघ	-13.5066
ेटा	-13.5081
्रि	-13.5083
अपा	-13.5105
रिच	-13.5145
▁कम्	-13.5151
▁उदा	-13.5198
os	-13.5208
▁इंज	-13.5237
गआउट	-13.5276
ES	-13.5282
पो	-13.5299
लिं	-13.5304
base	-13.5452
▁रॉ	-13.5465
टाना	-13.5469
▁ग्	-13.5519
क्रो	-13.5611
▁op	-13.5673
इप	-13.5683
ारा	-13.5695
पै	-13.5743
▁डेल	-13.5753
ठो	-13.5803
▁!	-13.5817
ager	-13.582
▁फाउ	-13.5829
िंक	-13.5838
fr	-13.5838
fo	-13.586
पर्	-13.5881
(.	-13.5907
▁गै	-13.591
ंत्रिक	-13.5956
▁नेवि	-13.5987
ED	-13.6006
खरी	-13.6038
Fu	-13.612
ावे	-13.6163
▁गिन	-13.6179
ss	-13.6318
SC	-13.6337
▁नी	-13.6407
gen	-13.6423
ेक	-13.6512
शास	-13.6601
▁दोषम	-13.6614
▁ना	-13.6646
ियाना	-13.6662
्री	-13.6678
▁करो	-13.6739
vi	-13.674
▁Le	-13.6743
तांत	-13.6744
मौ	-13.6748
सका	-13.6783
नश	-13.6797
केन	-13.6868
▁प्रतिस्	-13.689
ड़ो	-13.6901
▁Ac	-13.6937
▁वहा	-13.6996
iu	-13.703
णी	-13.7082
सला	-13.7209
▁किंग	-13.7255
▁टोक	-13.7279
▁सुर	-13.7303
bine	-13.7315
कड़	-13.7469
्यां	-13.7514
ेत्र	-13.7515
कुत्	-13.7525
याम	-13.755
रोब	-13.7606
ुका	-13.7621
नेल	-13.7638
ाक्स	-13.7665
दिखान	-13.7736
ment	-13.7807
▁जर	-13.7828
▁जाएँग	-13.7858
कने	-13.7894
mc	-13.7908
नलाइन	-13.798
्ते	-13.8062
लायें	-13.8113
पेक्षि	-13.8158
दिखा	-13.8168
▁एक्सें	-13.8221
ियां	-13.8243
ौद	-13.8258
ानी	-13.8276
ीनी	-13.8297
zo	-13.8337
अपन	-13.8369
ाया	-13.8423
uri	-13.8465
prop	-13.8482
टाय	-13.8535
▁dis	-13.8571
तल	-13.866
क्र	-13.8666
ref	-13.8693
▁सेक	-13.88
arse	-13.8813
ायेग	-13.8882
▁n	-13.8896
▁par	-13.8991
ुं	-13.9094
ानियाई	-13.9113
ायक	-13.9133
ड्यूल	-13.9168
▁अर	-13.9215
▁कांग	-13.9284
्टा	-13.9328
िन्	-13.9343
्लो	-13.9417
▁Pri	-13.9505
olum	-13.9517
डेक्स	-13.9544
▁यहा	-13.9579
lty	-13.9695
मेट	-13.9733
▁देखत	-13.9751
ick	-13.9784
▁pi	-13.9849
एंट	-13.987
and	-14.0034
▁संच	-14.029
▁आईए	-14.0301
युक्ति	-14.0335
सूचन	-14.0343
~	-14.0345
“	-14.0346
ञ	-14.0347
घ	-14.0348
ऑ	-14.0349
ढ	-14.035
ःस्	-14.0351
औ	-14.0351
